<pad>
</s>
<unk>
▁
X
.
,
s
▁the
a
:
▁and
▁to
▁of
▁fill
e
▁in
t
-
▁is
▁de
▁for
’
i
▁that
▁you
d
▁I
▁with
n
▁on
'
o
▁are
▁it
en
▁be
▁The
▁as
▁your
l
▁(
▁or
▁have
▁at
▁from
▁an
▁was
▁this
er
▁la
m
r
ing
▁can
!
▁will
▁by
?
▁not
re
)
▁we
y
▁und
▁has
▁all
▁die
▁but
▁our
▁their
▁A
▁more
▁un
▁der
c
u
in
▁so
▁they
▁one
▁about
▁my
ul
▁which
à
▁In
/
he
f
▁le
▁out
▁also
▁des
▁It
▁up
▁"
▁time
ă
if
▁This
▁We
p
▁do
–
▁“
on
h
▁si
le
▁les
▁în
▁his
▁who
▁like
b
▁when
;
▁been
▁other
ly
"
g
▁cu
▁care
▁what
▁new
or
▁some
▁get
▁were
▁just
▁there
▁would
S
▁them
▁any
).
al
▁into
▁me
▁had
▁se
▁make
at
▁than
▁du
▁over
▁You
▁how
▁no
▁people
an
”
é
it
▁If
k
▁pe
is
▁her
▁work
ve
▁only
▁may
▁its
▁first
▁most
▁well
▁use
▁zu
▁pour
z
il
▁need
▁these
▁din
▁den
▁us
able
▁S
▁mit
▁very
▁am
&
▁au
▁many
▁mai
A
th
▁through
▁pentru
▁two
▁von
▁way
ll
I
▁ce
▁și
▁help
▁best
),
un
▁years
▁2
▁C
▁nu
▁good
v
▁1
w
▁das
▁ca
▁where
▁know
▁year
▁He
▁see
▁für
▁auf
▁3
de
est
▁back
▁such
▁should
x
▁after
▁could
▁ist
▁now
▁much
and
...
▁home
to
▁ein
▁even
▁que
▁day
▁take
▁want
▁For
▁said
▁sur
▁une
▁să
▁dans
▁great
▁este
▁because
▁information
ului
▁find
C
▁she
▁im
ation
▁then
▁est
▁par
▁used
▁E
▁made
▁So
am
▁eine
▁şi
▁business
▁right
▁here
▁being
▁B
▁those
▁before
▁And
▁P
ers
▁don
B
▁life
▁go
▁As
▁M
▁each
▁qui
▁place
com
ant
▁sich
▁There
ar
▁Sie
▁own
▁part
ent
▁world
ment
▁while
▁But
▁around
▁L
us
▁plus
▁To
▁5
▁high
▁long
D
▁D
▁really
▁nicht
▁Le
▁service
▁4
▁different
▁Die
▁think
—
▁auch
▁look
▁both
lor
▁down
ten
▁La
▁off
▁vous
▁They
M
▁pas
▁data
▁T
▁love
▁every
▁10
▁last
▁same
▁using
▁free
▁dem
▁still
ate
ist
▁between
P
be
▁available
man
▁company
▁G
▁experience
▁going
▁site
j
are
▁set
2
▁system
▁important
▁few
▁fi
ich
▁What
▁services
▁under
▁When
▁online
▁New
▁come
▁provide
F
▁team
▁always
▁De
▁că
▁him
▁F
▁things
▁including
▁support
▁number
T
▁during
▁family
▁little
▁three
▁water
▁man
▁An
based
▁R
▁sau
▁avec
▁better
▁„
▁too
ge
▁must
▁per
ele
▁oder
au
▁aus
▁werden
▁does
▁without
▁ou
▁design
▁va
▁did
▁O
▁U
up
▁end
▁local
▁next
▁sure
▁lot
▁Re
▁top
▁Our
▁small
▁full
▁something
ung
▁vor
E
▁give
▁might
▁another
▁6
▁All
▁process
L
▁found
▁sind
▁since
▁With
K
um
▁within
▁post
▁car
une
▁N
▁J
ic
R
ter
ur
▁She
▁public
▁keep
▁H
▁order
▁start
ez
▁‘
uri
▁20
▁On
▁offer
▁quality
▁working
▁No
▁That
▁game
▁bei
▁today
▁never
▁week
▁St
▁feel
▁put
▁website
Y
▁days
▁program
▁looking
▁K
▁students
▁create
▁change
▁book
ity
▁At
▁possible
▁sunt
▁7
▁real
▁al
▁making
▁Be
▁products
▁case
▁school
▁say
area
▁My
▁point
▁als
▁children
▁course
▁show
▁8
▁These
▁18
▁large
co
▁über
▁second
▁market
▁fost
▁easy
▁plan
▁project
G
W
3
▁son
la
▁face
▁needs
ch
▁personal
me
▁sont
▁je
▁non
▁got
▁Do
the
▁health
▁special
."
1
den
▁state
▁open
▁money
▁again
▁food
▁page
▁together
age
▁qu
hat
▁ver
▁W
▁away
▁wird
▁until
V
▁pre
▁One
▁product
▁often
▁wir
▁nach
▁include
▁um
▁room
▁group
▁name
ce
H
N
▁person
▁social
▁list
▁How
▁why
▁community
▁contact
­
▁co
▁play
▁having
▁power
▁call
▁against
▁become
▁cost
▁V
▁research
▁12
▁wie
der
▁thing
▁along
4
▁access
▁level
▁price
▁einen
▁side
▁Un
▁means
(
▁big
▁God
▁dass
im
▁30
▁event
▁development
▁form
▁read
▁hand
▁control
▁However
▁done
▁job
▁hard
▁war
▁area
▁add
▁votre
▁live
▁range
▁After
▁Les
▁far
ver
▁old
▁perfect
▁15
▁space
▁house
ine
▁enough
0
▁several
The
mm
▁University
▁diese
▁Co
▁comes
▁across
▁already
,”
▁body
▁Das
▁einer
▁left
▁future
▁times
▁dar
▁simple
ry
▁getting
▁try
ți
ness
▁makes
▁past
ca
▁light
▁Der
▁run
▁four
ance
▁ever
▁einem
▁below
O
▁9
▁learn
out
▁video
▁etc
▁«
▁zum
▁kann
▁minutes
▁example
▁nous
▁Se
▁sie
▁industry
▁problem
J
▁country
▁fact
▁type
ner
▁companies
▁line
▁city
▁check
▁doing
elle
▁fun
▁En
▁Your
ling
▁share
ile
▁actually
▁value
zi
▁ab
▁offers
▁less
▁night
▁Dr
▁started
▁least
▁short
▁main
▁single
▁though
▁prin
time
▁hours
▁others
▁called
▁visit
▁bit
ée
▁customers
▁music
▁members
ies
▁pay
nd
▁once
gen
▁können
▁low
▁durch
▁story
▁understand
“
▁Am
▁didn
▁content
son
▁building
▁result
▁aux
▁complete
▁doesn
▁haben
▁questions
line
▁technology
▁Pro
▁current
▁won
▁let
▁features
▁please
5
▁above
ive
▁management
▁lui
her
▁training
▁everything
▁noch
▁came
▁web
▁ensure
▁months
▁art
▁sub
▁million
▁professional
▁results
▁kind
▁season
▁unique
ze
▁enjoy
▁early
▁major
▁yet
▁Ver
one
▁media
▁[
▁property
▁beautiful
▁given
▁due
▁government
▁nur
▁email
▁total
▁natural
▁test
▁provides
▁various
▁American
▁moment
▁air
▁idea
▁known
▁Il
▁friends
▁final
▁buy
▁specific
▁issues
▁took
▁mind
▁study
▁addition
▁size
▁pro
▁film
▁pot
▁thought
▁tell
▁While
▁head
▁clients
▁performance
▁question
▁whether
▁certain
▁model
▁following
▁energy
▁office
▁whole
▁bring
▁required
ţi
▁date
_
que
▁da
▁US
▁taking
go
▁living
▁someone
▁heart
▁key
▁areas
▁says
▁2018
▁month
▁Er
ste
▁11
▁front
▁Now
▁class
▁choose
pe
▁further
▁believe
of
▁among
sch
▁child
▁aber
▁Please
rea
▁later
▁amount
ice
▁National
▁style
▁tout
▁staff
▁white
▁ge
▁five
▁blog
▁designed
▁went
▁Da
▁general
▁rest
▁zur
▁quite
per
▁customer
▁close
▁Some
▁women
▁move
▁software
▁Ein
▁Ab
▁history
▁either
▁seen
▁card
▁City
▁hope
▁16
és
va
▁Al
▁especially
▁view
men
▁account
▁needed
▁United
]
▁yourself
▁100
▁receive
▁ideas
▁writing
▁simply
▁present
▁continue
▁application
▁build
▁turn
ated
▁everyone
cette
▁bien
less
▁Si
▁original
8
▁individual
tre
▁works
▁options
▁May
▁Not
▁report
mer
▁human
▁provided
▁By
▁series
7
▁modern
▁meet
▁50
▁25
▁color
▁download
▁Here
6
▁poate
▁În
▁phone
▁likely
▁table
▁ma
▁Or
Z
▁19
▁insurance
▁anything
▁search
▁Ge
▁issue
▁includes
▁clear
les
▁almost
ilor
▁14
by
▁Du
▁mais
ier
▁law
▁added
▁con
,"
▁ago
▁His
▁points
▁mult
▁financial
▁problems
▁however
▁events
▁half
ard
▁ask
▁version
end
▁created
▁lead
▁focus
▁increase
ex
▁allow
▁extra
▁24
▁credit
▁production
zu
▁black
▁systems
▁17
▁opportunity
▁bis
▁fast
ring
▁Don
▁via
fer
▁comme
▁popular
▁South
ating
▁State
ator
▁common
con
▁throughout
▁risk
▁young
▁Je
▁image
ha
▁third
▁taken
▁Z
▁dis
▁From
▁details
▁games
▁practice
che
▁security
▁medical
▁learning
▁material
▁international
▁forward
▁paper
▁action
▁file
▁oil
▁self
▁private
▁interest
bar
▁sale
▁stay
ke
▁San
▁matter
▁reason
ted
▁potential
▁brand
▁field
▁treatment
▁period
▁York
▁Park
▁acest
ou
▁Ce
▁ready
▁rather
▁outside
▁standard
▁located
▁marketing
cu
▁Can
▁education
use
▁role
▁men
▁probably
▁store
▁John
▁rate
▁code
▁kids
▁currently
▁near
▁sales
▁usually
▁activities
▁party
▁leur
▁particular
▁mehr
ill
▁percent
▁fait
▁happy
▁inside
▁save
▁skills
▁consider
▁recent
▁strong
▁position
▁knowledge
▁tax
▁users
und
▁coming
▁article
min
▁sein
▁travel
▁changes
▁impact
▁wanted
▁address
▁soon
▁North
ată
▁trying
▁app
▁School
▁Es
we
▁conditions
▁digital
▁similar
▁solution
▁location
▁Of
▁follow
▁red
▁review
▁skin
▁pretty
day
▁dé
▁cause
▁Sa
▁user
▁Man
”.
▁Just
▁faire
▁member
▁iar
▁higher
▁step
▁wide
▁uns
▁World
▁additional
ber
▁easily
▁deal
▁ways
▁mobile
▁national
▁couple
▁ihre
▁choice
for
ous
▁Google
▁environment
urile
▁Center
mp
▁»
qui
▁growth
ler
▁improve
▁items
▁Nu
▁leave
▁true
▁wurde
▁cannot
▁13
▁running
▁anti
▁option
▁reading
▁Car
▁Wir
▁April
▁behind
▁client
▁cover
▁stop
ja
▁built
▁Con
ement
▁projects
▁variety
▁Ihre
ș
▁unter
▁longer
year
▁photo
▁Also
▁received
▁return
00
▁bar
ary
elor
▁Home
our
▁Me
▁held
▁click
▁ex
▁cum
▁takes
▁computer
▁told
+
▁patients
ting
▁direct
▁quickly
tic
▁vom
▁di
▁kitchen
▁network
▁2015
▁effective
▁collection
▁2017
▁words
▁cele
▁student
▁amazing
eur
.”
▁ale
”,
▁purchase
▁mean
▁West
▁nice
▁age
▁base
▁summer
▁multi
▁allows
▁latest
▁global
▁chance
▁sense
ieren
▁difficult
ité
ka
du
▁providing
▁Art
▁drive
▁Go
▁très
U
▁Pre
▁shows
▁hair
▁success
▁UK
red
ü
ish
▁weeks
▁solutions
▁Pe
▁equipment
și
▁worked
".
▁legal
▁bad
▁40
▁Internet
▁included
▁upon
▁excellent
▁goal
▁El
▁Mo
▁policy
▁aussi
▁weight
ici
▁approach
▁six
▁entire
9
▁send
▁1.
▁wenn
▁photos
://
ger
▁favorite
ley
▁else
▁types
▁link
▁recently
▁Mit
▁hot
tra
ş
▁according
▁necessary
▁multiple
▁Im
▁sehr
▁sign
▁anyone
▁land
▁States
▁unsere
ées
We
▁nothing
▁commercial
ful
▁seems
▁International
▁March
▁Thanks
▁County
▁books
▁Ca
▁mi
▁meeting
▁tools
▁cut
▁related
▁lives
way
▁develop
▁sound
▁safe
▁Her
▁average
▁clean
▁talk
▁peut
▁dann
▁terms
▁foarte
▁super
▁programs
▁decision
▁costs
▁être
▁2019
led
▁parents
▁Mr
▁lower
▁door
▁été
▁box
▁record
▁win
ster
▁America
▁immer
▁road
▁leading
▁section
▁Facebook
▁Most
iert
▁morning
▁asked
▁involved
▁hier
▁images
▁House
▁highly
▁Bar
▁Service
▁attention
▁normal
▁plans
▁source
▁Aus
▁benefits
▁ses
des
▁internet
▁materials
▁même
▁fine
▁fit
▁21
▁itself
▁wieder
▁Many
▁nature
▁pain
▁device
art
pro
▁France
lich
▁2014
▁inter
▁Li
▁career
▁looks
▁ré
▁ability
▁situation
ville
▁2016
tes
▁remember
▁TV
▁levels
▁subject
ally
▁reduce
▁*
▁Day
▁write
▁pick
ence
▁fresh
▁traditional
chi
▁machine
▁resources
â
▁countries
▁Even
▁green
▁Free
▁daily
▁respect
▁instead
▁Once
▁word
▁construction
▁huge
▁feature
▁themselves
▁loss
%
▁safety
▁economic
▁require
30
▁planning
▁mal
▁directly
ure
▁track
▁tool
▁positive
▁piece
▁parts
ang
▁trip
▁organization
▁sites
▁fire
▁China
▁Pour
▁plant
▁board
▁interesting
gar
▁fie
▁late
▁wall
▁walk
ham
▁Ne
▁First
▁double
▁budget
▁cases
cal
old
▁Bo
▁spend
port
▁worth
ique
nes
cul
era
▁text
▁decided
▁floor
▁requirements
▁cel
▁effect
▁gibt
▁news
▁vos
▁players
▁saw
▁auto
▁town
▁myself
▁lost
▁$
▁June
▁significant
▁giving
▁stand
▁stock
▁hold
▁Are
▁shall
▁ideal
▁London
▁answer
▁Vor
▁gives
ative
▁timp
▁center
▁Group
▁sans
▁Ar
▁Ma
▁reach
ren
▁More
mit
▁guide
▁fully
▁Since
▁Inc
▁culture
eat
▁written
▁Ho
▁India
▁Well
back
▁goes
▁completely
▁tour
▁began
▁picture
▁mare
▁playing
▁trebuie
ils
chen
▁hit
▁complex
▁Thank
▁Let
▁applications
▁friend
▁English
▁charge
▁recommend
▁message
In
▁Mar
pp
▁method
▁successful
tion
▁release
▁creating
▁despre
esc
▁eye
▁apply
net
side
▁ar
▁platform
▁touch
▁towards
▁match
▁Black
▁fall
▁ground
▁High
▁Q
▁schon
▁hotel
▁prices
▁developed
uk
ide
▁September
ized
▁War
!!
▁grow
▁watch
▁storage
eau
can
▁Get
▁See
▁European
▁language
ează
▁court
▁Why
▁hear
▁doar
lan
▁Christmas
▁Web
vo
▁sent
▁businesses
▁Red
tel
▁Ha
▁wonderful
ations
za
▁22
▁thinking
▁became
▁cool
▁speed
mar
▁--
▁groups
▁interested
ak
▁60
▁screen
▁Design
▁limited
▁expected
▁opportunities
▁regular
off
▁Best
Re
▁ihr
▁Great
▁employees
▁custom
▁multe
let
▁benefit
▁term
▁bine
▁deep
▁August
▁President
▁Auf
▁wish
▁sometimes
ari
▁pressure
▁ani
▁trade
▁firm
▁comment
▁November
▁expect
▁2012
▁Ich
▁relationship
▁active
org
▁heat
▁wood
▁notre
▁function
▁2.
▁wedding
▁starting
▁Health
",
▁death
▁pages
▁vehicle
▁request
▁helps
▁blue
▁analysis
▁posted
▁healthy
▁contract
▁•
▁Each
▁Fa
▁dintre
▁Friday
▁considered
cher
▁quick
▁understanding
▁condition
ization
▁document
▁prevent
▁growing
▁protection
▁cat
▁#
10
▁join
▁serve
▁blood
▁July
▁region
car
▁entre
▁physical
▁cash
aux
ng
▁stage
▁seem
▁definitely
▁investment
▁purpose
▁begin
®
▁break
itate
▁moving
▁met
ize
▁select
▁tous
▁Europe
@
▁individuals
▁Zeit
gu
▁unit
▁noi
▁places
all
▁wait
▁difference
▁round
50
rie
▁Et
20
▁activity
е
▁Windows
▁produce
▁keine
▁Air
▁January
▁deux
▁entry
king
▁goals
▁previous
▁+
▁Business
ont
▁Sunday
▁offering
▁response
▁surface
▁Department
▁exactly
▁Online
dem
ischen
▁hands
▁hour
▁dog
▁damage
▁capital
▁toate
▁wrong
unui
tri
▁sell
▁published
▁families
▁avoid
▁Ko
▁mod
rat
▁Make
▁October
▁former
▁Services
▁felt
▁selection
eaza
gel
▁Good
▁actual
▁gut
▁gas
15
▁structure
▁act
▁Zu
▁creative
▁Vi
▁shop
▁Lo
şi
▁mis
ungen
▁fan
▁|
▁Bei
▁protect
▁Na
q
ok
▁California
▁political
25
▁feeling
▁ces
▁display
▁essential
ând
▁seine
▁soft
ach
▁happen
▁Paul
▁Cu
house
ante
▁easier
▁sort
▁Post
▁accept
field
zen
▁character
▁beginning
▁Jesus
▁weekend
▁certainly
▁THE
▁alle
▁transport
▁Saturday
▁basic
▁loved
ros
▁offered
▁camera
▁Green
ology
ä
▁manage
▁paid
▁advice
▁patient
▁spent
▁mir
▁baby
ö
▁basis
▁cancer
▁Although
▁gift
▁3.
dieser
▁overall
▁Sch
▁Ex
▁December
▁released
▁prior
▁sowie
▁club
▁Street
▁College
▁î
over
▁gave
▁truly
par
▁Canada
▁existing
lie
▁ganz
▁setting
▁supply
▁college
▁communication
▁23
▁pass
▁devices
▁glass
▁experienced
▁grand
▁Po
▁beyond
▁format
▁mon
▁perform
sten
▁1,
▁Per
▁sold
▁rates
▁regarding
▁Paris
▁Dar
▁challenge
▁feet
▁Su
je
▁Bank
ven
jo
▁band
▁delivery
Vous
tele
▁East
▁pictures
▁useful
*
▁increased
▁stories
sion
bra
▁brought
▁effort
▁payment
▁heard
▁played
▁White
▁metal
tal
▁engine
▁Club
ical
▁effects
▁degree
▁bed
ette
▁David
°
▁Au
▁Company
▁player
▁Today
▁maintain
▁minute
mail
▁race
▁comfortable
▁responsible
vor
▁associated
▁weather
▁$1
▁tried
▁Check
▁solid
▁movie
▁coffee
board
▁po
▁warm
▁connect
▁Ad
work
mal
▁Act
▁achieve
▁Nach
www
term
▁claim
▁particularly
▁cas
▁furniture
▁finish
▁temps
▁disease
▁lots
▁ball
▁sun
▁strategy
bre
▁mine
▁Click
ran
▁Will
▁garden
▁stuff
▁limit
▁bottom
▁shown
ship
▁habe
▁Super
▁completed
▁wine
ische
▁largest
▁appropriate
▁immediately
▁Hi
▁trust
ability
▁powerful
▁helping
▁schedule
▁correct
▁transfer
pre
▁journey
pm
don
▁highest
▁finally
form
▁extremely
▁window
▁Over
▁remove
wood
▁2013
▁mother
▁Auto
▁annual
▁Star
▁Di
о
▁gold
tar
ju
▁Use
▁thanks
▁centre
▁Australia
▁estate
▁eyes
▁force
▁income
▁science
ori
▁enter
▁28
ire
▁schools
▁restaurant
▁Council
aus
▁agree
▁campaign
▁Ta
▁letter
▁central
▁Because
▁path
▁loc
▁files
▁population
▁explore
▁mid
▁concept
▁church
80
▁einfach
▁reasons
▁determine
▁February
▁evidence
▁sleep
▁Board
▁maybe
▁wasn
▁Monday
▁director
well
During
▁sweet
▁assist
▁police
▁repair
▁techniques
▁served
vi
▁sports
▁opening
▁ones
▁notice
▁PC
▁alte
▁Bi
▁cold
▁billion
▁balance
cer
▁nearly
▁wear
free
▁Have
▁comfort
▁studies
▁traffic
▁item
▁teaching
▁turned
isation
12
▁greater
▁knew
▁Association
▁Office
▁established
45
▁Love
▁changed
▁pan
van
▁Mi
▁tend
▁connection
▁lack
▁bank
cat
▁helped
▁spot
▁spring
▁Wi
▁Mac
▁Christ
▁saying
▁General
▁port
▁Mal
▁System
▁According
▁chiar
log
▁mix
▁Lake
▁intr
▁deliver
mon
▁Ro
▁Management
bri
▁pieces
▁announced
▁Yes
▁dark
val
▁rights
▁Diese
ki
vent
▁born
▁muss
compared
▁demand
▁handle
▁mode
lic
▁ahead
▁sharing
▁micro
▁Par
▁Every
▁bag
▁daca
▁Apple
▁Mark
▁larger
eze
▁progress
▁stress
▁cards
▁driving
▁dry
▁relevant
▁Jo
▁tree
▁reported
ities
▁tea
▁although
▁Research
▁pool
▁fin
▁Und
▁decide
▁expert
rate
zeit
▁26
▁Ka
▁fix
igen
▁direction
▁star
▁middle
▁Ja
▁Land
ken
▁button
▁rules
▁également
▁viel
▁welcome
că
▁Top
▁allowed
▁tip
▁cei
▁Nous
té
▁unei
▁efforts
▁note
▁title
ric
berg
▁ainsi
▁led
▁alone
ward
▁vie
▁brain
light
▁Court
set
▁steps
pri
Q
sti
▁voice
▁models
▁parties
▁radio
▁mission
▁methods
▁Te
air
▁essay
my
▁competition
ses
▁serious
▁Ti
▁Hand
not
▁winter
24
▁vision
▁technical
▁cross
▁update
▁Team
▁evening
▁experts
part
▁wo
▁App
▁peu
▁mich
▁reports
▁km
▁print
▁Hotel
▁earlier
▁uses
▁menu
▁miles
▁classes
▁mo
▁loan
▁host
▁author
-1
▁bun
19
uch
ble
▁holiday
los
▁looked
▁Test
▁moved
▁numbers
▁covered
ker
TM
▁album
▁27
▁când
▁shopping
▁Ihr
▁requires
▁USA
000
▁official
▁states
▁tips
ible
▁Lu
ces
▁figure
▁Take
▁după
▁teams
▁song
▁master
ED
▁cleaning
▁drop
▁primary
▁Life
▁carry
▁initial
▁encore
▁Add
▁woman
▁Water
▁advantage
see
ré
▁motor
mel
▁finding
▁plastic
▁IT
▁Church
▁shape
▁gets
▁followed
▁100%
▁Program
▁Another
▁zwei
▁father
▁rich
où
▁lines
▁distance
▁cell
▁parte
bit
▁perhaps
rii
▁session
▁Pentru
ING
ants
▁remain
13
▁finished
bel
▁organizations
▁Any
▁taste
Whether
ram
like
▁artist
aire
▁French
▁donc
ow
▁200
▁paint
▁Open
▁appear
▁Washington
▁target
pir
▁generally
▁British
▁seven
▁bio
▁sector
90
▁fapt
▁prefer
▁partner
ăm
▁diverse
▁onto
▁refer
▁Law
▁Ri
▁critical
▁copy
ck
ix
tag
▁Road
▁concern
▁maximum
▁train
▁într
ura
▁Qu
▁links
▁audience
▁foot
▁Blue
ification
▁developing
▁interior
=
▁aceasta
▁dedicated
▁movement
sta
▁challenges
inte
▁Euro
▁classic
▁Um
▁alternative
mann
▁Une
qu
▁heavy
▁install
▁fiind
▁leaders
▁views
▁www
▁standards
ong
40
▁cm
▁park
▁himself
▁People
▁separate
▁secure
sie
▁maintenance
▁encourage
ein
▁reviews
▁Michael
▁background
▁therefore
▁server
▁dream
ping
▁block
▁2009
▁facilities
▁II
▁attend
▁cap
35
▁steel
▁shared
▁doctor
▁River
▁Bay
▁length
▁jobs
▁Plus
▁station
▁elements
▁rock
▁professionals
cle
▁dont
urilor
▁gain
▁programme
▁Cor
▁leader
ării
▁>
▁task
▁seeing
▁statement
vin
▁fish
▁advanced
▁discuss
die
isch
▁plenty
▁Hall
▁Other
▁homes
▁Ni
▁testing
▁Last
▁Note
▁talking
▁exchange
▁exercise
▁cea
▁wife
▁Für
▁Texas
▁fr
▁speak
17
70
▁promote
tul
apos
▁Jahr
▁Trump
▁ohne
▁learned
▁Sp
▁owner
mor
▁fois
▁meaning
▁dacă
nic
а
14
▁driver
▁Amazon
▁flow
▁shot
▁sous
▁Gold
▁straight
▁conference
▁peste
whose
▁installation
▁produced
▁independent
▁Institute
▁James
▁mental
ara
ium
▁husband
▁guests
27
▁Che
▁Indian
zer
▁minimum
500
▁sit
put
▁avea
▁ride
gan
▁Ke
book
ages
▁presented
▁Com
▁Call
▁fee
ări
▁putea
▁Public
▁pa
28
▁Director
▁contains
▁factors
▁famous
▁bathroom
▁core
▁viele
▁acum
▁animal
▁Ihnen
▁Find
▁Fall
ford
▁coverage
▁smart
ries
▁memory
▁dance
11
▁communities
eurs
▁Florida
▁sport
▁bus
▁colors
▁affect
▁score
▁properties
18
▁astfel
▁beach
▁friendly
izing
▁buying
▁forget
este
▁capacity
▁lose
▁listed
ica
han
▁selbst
▁values
▁Power
▁comments
eux
ați
▁context
liche
▁keeping
▁2008
▁su
▁biggest
▁fiecare
ight
▁toute
▁dinner
bau
▁Mai
▁status
rez
▁selected
▁cells
▁eight
▁package
▁scale
din
▁Who
▁century
▁bi
▁Africa
▁http
▁named
▁adding
▁mention
▁casino
▁couldn
▁outdoor
▁sugar
▁prepared
21
▁Ba
vers
ration
▁ja
▁aspect
▁31
▁treat
tru
▁flat
32
▁reality
▁waste
▁King
▁drug
▁operations
▁aim
▁fans
▁vers
▁plants
▁Dis
▁Daten
être
▁placed
▁bon
beim
▁slow
cri
▁Care
mes
26
box
▁helpful
▁documents
▁visitors
ture
▁Menschen
▁Chi
▁recipe
▁kept
▁Grand
▁operating
point
▁bin
▁Tri
Be
▁experiences
▁academic
▁finden
▁sera
act
▁Pa
▁society
▁combination
5%
▁owners
▁poor
▁Robert
▁military
▁economy
▁aware
rot
mie
▁Thursday
▁2011
▁fantastic
▁numerous
▁fair
med
▁welche
▁fruit
ku
▁Social
▁funds
▁atunci
▁Part
▁Big
▁2010
▁detail
▁Peter
ani
▁Wie
▁Tu
ear
▁Wenn
▁manager
▁Dan
▁Pi
▁wants
▁Data
pos
▁older
▁Download
▁Was
▁corner
▁president
mas
▁smaller
▁bright
▁proper
▁Kinder
▁Two
▁award
▁premier
▁seek
▁thank
▁proud
▁workers
▁2000
▁gone
▁medium
▁grade
▁Ru
cro
▁interview
23
▁mari
▁80
▁Ga
▁90
▁anderen
▁cultural
but
rum
get
▁pop
▁Information
▁press
▁Project
▁excited
▁Saint
▁England
▁beauty
▁agreement
▁Like
▁strength
▁waiting
и
Le
▁residents
▁Ben
▁mentioned
▁etwas
▁rooms
▁neue
▁Microsoft
▁passed
▁sea
▁electric
▁forms
▁Central
▁Lord
ute
▁pré
▁square
itatea
▁debt
▁street
▁pi
▁happened
▁Tuesday
recht
▁Eine
▁Set
▁federal
CC
....
lig
▁Christian
▁truth
▁map
▁secret
▁Chinese
hol
▁wrote
▁hospital
▁Island
▁frame
▁sources
pan
▁29
▁changing
▁Where
▁negative
▁processes
▁leadership
▁nos
▁info
▁Gu
▁CO
▁reference
▁corporate
▁characters
▁dining
▁becoming
▁4.
▁Science
▁Education
▁camp
fall
▁Auch
▁topic
▁influence
▁70
▁identify
▁(19
care
ions
ray
▁Both
▁collect
▁practices
▁fight
▁injury
▁nici
▁depuis
▁actions
▁Wednesday
▁bill
▁cheap
lui
▁awesome
tig
▁expensive
ceea
▁exact
22
▁avant
▁fat
▁spending
▁designs
▁damit
▁comp
▁whatever
▁Light
▁quarter
hand
▁connected
▁technologies
ges
▁shower
▁500
▁Time
▁zone
▁vote
▁andere
▁otherwise
tur
▁happens
hin
▁volume
▁thousands
war
▁Play
▁temperature
▁industrial
▁fuel
100
top
kin
▁efficient
teil
alt
▁monde
▁Ra
▁bedroom
▁showing
▁continued
▁Plan
▁assistance
▁discover
▁Year
▁applied
▁audio
▁thus
▁permet
▁fashion
cra
ious
▁focused
16
▁arm
▁Their
▁Foundation
▁majority
▁wind
▁bought
▁factor
▁opened
tern
▁cars
▁exciting
▁affordable
ches
▁panel
▁caused
▁travail
▁roof
▁enable
▁toward
▁Development
▁foreign
avi
long
De
▁Mon
▁Va
AP
▁asta
▁prepare
▁German
▁Centre
ère
▁fear
▁Este
▁Des
▁Kon
á
stand
▁Real
lichen
▁Beach
▁expertise
▁route
▁nation
▁snow
▁articles
▁Wood
▁operation
▁passion
▁cand
haus
OR
▁senior
▁becomes
▁sounds
▁enjoyed
▁gegen
▁courses
▁absolutely
tim
uff
▁moins
▁TO
▁fabric
poli
▁Bre
▁bo
▁Elle
bu
▁participants
stone
ties
▁listen
▁Spiel
pot
▁selling
▁geht
▁mini
▁trans
▁ingredients
auf
▁orice
▁Next
▁cream
▁edge
▁recommended
▁Form
▁processing
vert
▁described
▁installed
▁managed
▁electronic
▁performed
▁raise
▁imagine
down
▁fond
▁Inter
▁Mc
▁Dans
istic
▁miss
sur
▁Col
cut
▁dupa
▁Twitter
▁bowl
▁remains
▁Jan
▁smooth
▁fees
▁aid
▁presence
▁Android
▁decisions
▁names
▁Music
▁innovative
▁Tom
▁spread
▁lovely
▁daughter
US
▁facility
▁peace
▁department
▁weiter
▁Sun
▁fund
▁2018.
▁discussion
75
EC
▁lunch
▁videos
05
ige
▁parking
▁relationships
▁George
▁teachers
room
▁Tra
▁Sam
▁properly
▁Book
▁CA
▁calls
▁stat
ux
▁soit
▁Community
▁Jahren
▁increasing
▁civil
app
▁35
▁rise
▁dabei
▁studio
▁policies
▁agent
▁Before
▁Cal
▁2005
▁sample
▁manner
wing
stra
▁fel
▁Show
▁scene
mic
nom
▁typically
▁pair
▁detailed
▁Work
▁cities
▁Rock
▁Gar
▁serving
▁machen
▁trees
▁accident
▁cloud
▁animals
▁Den
▁Wa
▁suggest
putting
▁suite
▁clearly
▁net
▁funding
▁salt
▁Men
ped
▁Food
▁leaving
▁Government
ick
▁seat
▁Los
▁teacher
▁iPhone
▁300
▁commitment
▁aspects
▁previously
▁cent
▁Vo
▁artists
▁runs
>
▁Gi
▁mar
!!!
▁Media
▁feedback
▁resolution
IN
▁wurden
▁busy
▁adult
29
elles
▁closed
▁trouble
▁rent
lot
▁importance
▁units
Pro
▁provider
▁visual
IT
▁diet
▁appearance
pin
▁Din
▁eating
Fi
ball
är
ney
▁records
▁Fi
▁faut
▁CD
ign
▁vă
▁agency
ierung
▁Back
▁windows
▁pull
ash
▁profit
▁brings
▁Committee
▁girl
▁vehicles
▁Hier
ES
până
▁Kunden
pen
▁explain
▁cadru
▁attack
▁markets
▁claims
▁walking
▁pouv
low
▁showed
▁principal
▁lucru
▁precum
TA
▁partners
▁exist
▁internal
hen
▁Master
unless
▁doubt
$
▁Long
▁leaves
allowing
pol
▁Up
▁Contact
▁practical
▁suit
▁Site
▁formation
▁signal
▁approximately
▁ourselves
▁colour
▁species
▁advance
▁PM
ans
▁locations
vous
▁updated
▁faith
mus
▁stores
heim
▁suitable
▁continues
▁fac
ever
▁Bill
▁chose
▁inform
▁environmental
▁responsibility
99
▁competitive
▁strategies
▁toujours
tive
▁automatically
▁dress
▁Minister
har
▁Start
▁=
▁pattern
tier
▁pays
▁profile
▁raised
ange
▁drink
▁element
▁landscape
▁Tag
▁cheese
ific
▁Stadt
39
▁launch
▁wouldn
AS
▁push
▁mill
▁mass
▁category
sondern
col
▁climate
lier
▁slightly
95
ace
▁domain
kan
▁feed
▁Live
▁Mais
▁après
▁village
▁hatte
▁joined
▁Museum
head
▁draw
▁concerns
ER
▁technique
▁Bio
▁Sea
▁@
wer
▁battery
▁mostly
▁familiar
▁Sub
▁delicious
doch
60
▁carte
▁avut
▁premium
▁attempt
▁Über
▁combined
lement
▁voi
▁wonder
▁failure
which
esti
31
▁sta
▁transform
▁license
▁depending
▁specifically
▁OF
band
▁Sport
list
▁Tour
▁Israel
▁filled
▁manual
▁watching
▁rule
mat
▁notes
▁Oh
▁bereits
▁foundation
▁vital
▁lassen
▁cât
▁shipping
▁registered
▁jour
▁island
▁sets
▁football
▁EU
▁stone
▁Press
▁adapt
ised
▁thoughts
▁doors
€
▁components
rig
▁generation
▁guess
cker
▁realize
▁Roman
▁contre
▁Out
▁IN
cip
59
▁enhance
▁battle
▁monitor
▁Martin
▁websites
▁DE
▁Festival
ân
▁Place
▁rare
această
▁sollte
▁Read
ware
Those
ende
▁prix
▁roman
▁creation
▁confidence
▁Japan
▁rain
▁guys
▁south
▁trading
▁€
▁Film
▁pana
▁asemenea
36
▁instance
cou
▁nun
▁Pass
Cette
▁Network
▁prime
▁spiritual
▁tough
▁AND
▁Cat
▁boat
▁leads
▁Germany
▁valuable
57
lect
▁distribution
dar
▁Manager
cha
▁obtain
GB
▁unor
schaft
▁zwischen
▁winning
▁suis
58
▁Party
▁ceva
▁comprehensive
▁aceste
▁committed
▁Hu
ţ
▁north
werk
▁interface
▁Valley
▁anywhere
▁Only
TE
hui
bus
vis
▁Society
▁reliable
▁quelques
tech
ual
▁educational
serv
▁opinion
▁appears
▁count
irea
ban
▁45
▁contain
ost
▁anul
rien
gra
▁counter
-3
▁resource
▁Wo
▁posts
▁employee
rol
▁ended
met
▁meine
▁reached
gri
▁Bra
▁conduct
▁housing
▁tickets
▁database
IL
▁perspective
▁Har
▁error
▁meal
▁hearing
▁transition
▁browser
▁supported
▁starts
țe
▁adults
▁România
dra
▁worry
▁avoir
▁regional
▁min
▁Does
▁Keep
rom
sco
tem
▁Old
▁Under
▁Commission
▁Bau
▁News
▁mois
▁respond
▁alles
▁chair
▁ho
right
▁totally
gle
▁32
66
town
Ch
▁gr
▁garage
ții
▁Union
ică
▁2,
▁reflect
▁retail
▁unde
▁accessible
water
▁regard
▁logo
▁inspired
▁Wall
▁Ste
▁asking
▁Journal
▁Teil
▁collaboration
▁acid
▁Fund
▁spirit
despite
▁delivered
▁girls
▁Look
rant
▁District
▁rental
▁spune
els
▁permanent
▁iron
▁Thomas
EL
▁except
▁catch
▁providers
▁2006
▁chat
▁emergency
gre
site
▁missing
abil
▁Hill
urs
▁plusieurs
▁birthday
DS
ersten
▁5.
▁library
▁earth
CI
▁lighting
▁fixed
tori
▁replace
▁administration
leurs
▁meat
▁songs
▁confirm
▁rapid
▁Special
▁holding
▁honor
▁Market
La
▁measure
▁guarantee
▁switch
▁extensive
▁Neu
avez
▁protein
▁infrastructure
▁functions
▁cont
row
star
▁Port
Using
▁faster
44
▁measures
▁celor
▁exam
200
î
▁conversation
▁brands
▁Code
▁Website
OS
▁alors
▁organ
▁removed
▁Head
▁Cha
▁visiting
▁wild
▁seit
49
▁organic
aţi
▁kit
68
▁flowers
▁appreciate
▁dead
▁Fire
▁cela
▁Ph
▁arrive
▁purposes
▁qualité
▁restaurants
▁advertising
cur
▁ça
▁introduced
▁returned
▁desire
▁soul
▁Technology
);
▁Royal
tant
▁possibly
▁consumers
▁doua
ified
▁Award
toutes
▁meant
ezi
▁plu
ţii
▁talent
▁Security
arii
▁zi
▁Shop
▁breakfast
▁trial
ami
▁register
unserer
▁solar
▁deals
▁Ku
To
bat
MC
▁Global
у
▁nor
▁milk
▁choices
»
▁Sur
more
48
67
▁replacement
34
▁chocolate
▁Family
This
▁novel
▁Chicago
▁participate
▁trei
▁monthly
▁survey
▁End
▁Medical
autres
rich
▁bike
▁eventually
▁HD
bil
cent
▁afin
▁surgery
▁sin
▁manufacturing
▁consumer
system
▁object
▁Ju
ered
rac
▁clinical
▁dollars
▁chain
▁afternoon
▁ligne
▁accounts
ving
▁Australian
38
▁persoane
▁grande
▁Report
▁revenue
▁spre
▁cutting
▁approved
▁glad
chaque
win
▁waren
▁launched
▁layer
▁airport
▁effectively
▁coach
dé
LE
▁müssen
plan
dan
55
bringing
▁$2
nce
▁inspiration
You
▁soll
▁seemed
▁flight
▁prima
▁Welt
▁jetzt
ky
▁Western
▁label
▁möglich
▁input
▁laws
▁personnes
▁paying
▁Uhr
▁Mary
pur
▁covers
▁throw
▁Tor
▁bat
▁Gr
▁farm
▁improved
▁fără
▁theme
pens
▁Cup
▁settings
▁hire
▁massive
▁generate
▁earn
▁tab
For
gang
▁hin
▁roll
▁engagement
▁signed
▁League
▁registration
▁première
isse
▁university
ell
▁nou
rog
▁sitting
▁cazul
▁surrounding
▁Asia
▁bath
hal
▁plate
▁tests
▁presentation
▁chicken
▁Val
ably
▁magazine
▁Maybe
▁sauce
TC
▁exclusive
86
▁teeth
▁regularly
sed
gro
He
▁2017.
▁template
▁gleich
bal
▁African
în
▁rep
▁beat
▁deck
▁intended
▁para
▁IP
▁bra
▁forces
▁routine
▁Jahre
▁Bad
▁drivers
▁updates
▁elegant
▁external
▁engineering
ender
table
inter
▁Romania
▁zile
▁luxury
▁calling
▁cooking
▁component
wan
schen
▁birth
asupra
Co
▁opt
▁discovered
▁teach
▁Son
▁guest
▁dogs
▁2003
▁behavior
pé
63
▁Human
▁expression
▁nevoie
▁recherche
ging
related
▁discount
▁Brown
▁Such
▁Ve
▁height
clo
▁incredible
▁bas
▁mă
▁purchased
▁compte
▁instructions
▁Instead
▁output
▁mom
DR
89
▁reduced
98
▁constant
▁therapy
▁capable
mark
▁Sometimes
▁joy
▁perfectly
▁painting
avait
▁Sha
▁dat
▁produits
tric
ierte
▁Smith
▁trebui
▁beaucoup
▁chosen
▁cre
▁complet
▁Ltd
▁recovery
▁district
78
▁Unter
▁schnell
▁apart
▁phase
▁seeking
▁mark
▁pet
▁PDF
▁efficiency
▁buildings
69
▁sens
▁Video
▁destination
▁female
▁supporting
▁signs
▁appeal
76
▁favourite
ock
▁readers
▁Did
rou
PA
▁Jean
▁Em
pass
▁Zi
▁între
▁fly
mos
▁emotional
asse
▁sessions
▁symptoms
▁died
▁seconds
▁procedure
▁express
▁două
▁valid
▁euro
▁interests
Having
▁hundreds
grad
▁neuen
▁cook
▁pur
▁charges
sche
▁smile
▁festival
cho
▁£
cht
▁macht
▁Wasser
▁Cap
▁Learn
▁load
▁aici
▁Ch
▁cycle
▁carried
▁jusqu
stein
ski
cap
▁Bal
▁minor
77
▁considering
innen
▁greatest
▁Training
08
▁significantly
gé
▁dumpster
▁allem
▁bonus
▁guy
fel
▁lifestyle
▁Bro
▁implement
lock
▁Earth
kar
▁invest
▁river
▁accurate
▁mu
▁celebrate
▁ran
▁bigger
▁Mer
▁millions
▁partie
▁dazu
▁Full
gie
bot
roll
▁Women
▁compare
▁van
▁apps
PC
▁drei
▁maison
▁knows
rid
62
class
▁chez
char
88
▁cast
▁examples
▁Therefore
▁topics
with
▁Anti
how
▁whom
▁Deutschland
tine
▁CEO
▁truck
▁Which
erie
fect
bou
▁(1
sum
▁bonne
▁remaining
▁equal
▁engage
▁RE
style
▁urma
▁Grund
ür
▁font
▁assets
AL
▁rear
▁contemporary
▁occur
rated
▁tight
▁machines
▁0.
▁Aber
sol
rü
▁2007
gg
▁unul
▁était
▁capture
▁command
▁wire
▁shift
▁bread
▁causes
PI
SC
▁lights
▁lived
mul
▁Cur
▁Richard
37
▁cup
▁fields
▁crusher
65
avons
▁gear
▁standing
▁thick
aff
ments
▁conflict
ität
▁worse
SE
imi
▁dating
Do
▁flexible
ologie
SU
▁contribute
▁denn
▁appointment
▁ticket
bed
▁2019.
▁tasks
▁carbon
▁situations
MA
▁portion
▁urban
▁Canadian
▁Bur
▁pack
▁effet
▁Ball
▁timpul
▁owned
▁surprise
▁Mu
▁decades
▁affected
▁proven
▁Fe
zy
42
▁trend
▁autres
No
▁nine
ON
NE
oli
▁Daniel
▁spa
▁messages
PS
47
▁doch
▁improvement
▁mountain
▁Room
▁edition
▁musical
CP
▁Mill
▁steht
▁determined
you
weg
▁Digital
▁filter
▁youth
▁assessment
▁butter
▁Watch
▁zusammen
▁View
09
▁sole
.00
33
▁export
ery
▁zurück
▁walls
▁recognize
law
▁parent
ST
▁description
MS
SM
▁Finally
▁hardware
ident
▁brown
▁kinds
▁Arts
▁concert
▁sec
▁represent
▁institutions
▁fur
▁Support
87
▁ease
▁feels
▁sheet
▁Though
▁propose
▁personnel
bie
▁contest
▁successfully
▁direkt
bietet
▁submit
▁sicher
▁Personal
94
61
▁Very
bol
▁ha
▁channel
mut
▁mouth
▁vast
▁Ob
lit
▁poly
▁trained
▁specialist
UL
▁seiner
SS
▁vacation
▁resume
▁constantly
▁treated
▁150
▁native
▁Russian
▁patterns
▁knowing
▁Pan
peri
aci
▁answers
▁heute
93
▁Winter
▁yes
SP
].
▁kein
▁introduce
-4
▁shoot
AR
▁receiving
▁intre
▁appeared
▁brother
▁extend
▁fara
▁kommt
ali
▁numai
▁scientific
▁virtual
▁Ac
▁procedures
▁silver
▁leather
DA
▁executive
▁officials
▁agencies
▁Software
▁cor
Con
▁log
ț
02
▁7.
▁accepted
▁Berlin
ID
cot
▁employment
run
▁identified
96
▁déjà
▁cuisine
turi
▁Japanese
▁golf
▁Ki
▁carefully
▁remote
▁2018,
▁sus
tique
▁residential
97
▁Spring
▁Marketing
▁Control
var
▁historical
▁freedom
sure
▁broken
▁criminal
▁innovation
▁Italian
sper
▁cake
▁candidates
▁sizes
pel
▁frequently
▁planet
▁writer
1,
uvent
▁awareness
name
▁Children
▁relatively
▁pu
▁quiet
▁planned
▁election
▁6.
▁broad
▁skill
▁reasonable
▁Fort
▁aceea
▁arrived
▁payments
ack
▁Ort
▁investors
▁operate
ME
dic
▁foods
▁stick
▁agents
▁crowd
▁Students
▁concerned
test
▁designer
▁Conference
▁saving
▁recorded
▁proposed
▁ship
▁cred
▁Ci
RE
▁tradition
▁worldwide
64
▁television
▁projet
ency
▁struggle
▁twice
▁Off
▁begins
key
▁Table
▁demande
▁liquid
meter
▁2001
▁willing
▁medicine
▁expand
▁2004
▁2002
▁accord
▁Chris
▁prove
ston
mettre
▁moments
tik
such
2.
▁UN
▁jump
▁dish
▁Key
▁challenging
▁domestic
▁impressive
iger
▁Ram
▁doit
▁concrete
▁Unternehmen
▁LED
▁trouver
▁fundamental
▁implementation
85
▁hosting
▁Game
▁taught
tung
ront
▁shoes
79
▁stunning
▁Congress
▁Ent
▁Wer
▁alt
ör
▁calm
46
▁Daca
71
▁Dec
▁Fo
▁defense
▁expectations
▁Alle
▁brief
▁Hospital
▁sides
▁yellow
lei
▁speaking
▁crucial
▁Town
▁married
▁acesta
▁noted
▁Word
▁conducted
▁decor
kon
▁supplies
▁adventure
▁exhibition
heit
▁36
eria
ines
ological
quel
▁Van
-19
2,
▁Band
▁soil
▁Tim
▁NOT
▁pilot
▁Sh
Ho
CA
▁Eu
▁committee
▁Store
▁joint
▁Op
▁Jack
quality
▁Has
▁wenig
hood
▁Class
rus
▁grown
▁About
▁sum
▁Fair
SA
92
▁fourth
▁featured
▁Pen
▁natürlich
ched
▁ban
anne
▁theory
bin
iers
▁strategic
▁jours
▁communicate
▁pin
▁Bon
kom
-5
▁degrees
▁entertainment
ară
ales
▁pendant
▁Series
▁holds
▁Mini
▁Obama
▁conform
-10
▁preparation
▁autre
▁mortgage
▁Kan
▁typical
01
▁Review
▁laptop
CR
▁thread
BS
▁upper
▁searching
▁pen
▁Middle
73
▁leg
onic
IS
▁Kar
anz
▁circuit
▁Casino
07
▁petit
TV
level
▁Point
rau
▁cabinet
▁failed
▁stated
LA
▁privacy
vol
ativ
▁matters
▁Mor
▁Ur
view
▁consultation
TS
▁apartment
▁integrated
74
▁Through
▁kick
▁perioada
▁entirely
▁impossible
▁consideration
▁Alt
▁Come
▁outstanding
83
▁prezent
▁Local
▁Camp
▁bear
enden
life
▁Haus
▁William
“,
▁Instagram
▁solve
▁Ze
▁everyday
bla
eng
ough
84
?"
rely
TH
lang
82
▁removal
ală
▁circumstances
ente
▁lieu
▁2016.
▁ales
▁pure
▁choosing
▁Russia
amp
▁Santa
▁happening
▁crew
▁lei
IP
RO
▁resort
ened
MB
▁styles
▁dernier
uck
▁Guide
fic
▁fitness
▁healthcare
mol
▁vis
▁atmosphere
▁motion
▁closer
▁SA
▁default
▁architecture
iile
zel
cla
OP
▁west
▁Energy
▁positions
▁contrast
▁serves
cup
▁rose
pers
▁noise
mont
#
lies
pat
IC
arc
▁winner
tent
▁Preis
▁vin
blo
ție
▁OR
▁Buch
▁nearby
▁meetings
▁48
▁quand
▁usual
▁weitere
▁caught
▁issued
ști
upcoming
▁agreed
place
▁Brand
▁relation
▁atât
▁Tre
▁lors
▁adopt
▁celui
cken
▁partnership
?”
▁ba
▁ID
▁consistent
▁Ya
▁Academy
cial
1%
▁mise
▁gute
gli
▁Bu
▁reduction
acy
aga
▁Sc
▁Informationen
▁kommen
press
▁bridge
▁qualified
position
▁combat
!"
eva
oase
▁inner
▁loans
made
▁Mexico
▁formal
▁fell
91
▁campus
ienne
▁framework
ncing
▁Para
▁password
▁sei
▁Cross
▁Ten
bank
▁gun
ient
▁usage
▁(2
Gra
▁prea
▁Als
▁finance
tate
ition
▁regulations
▁Professional
▁pl
▁SEO
▁trecut
▁aller
▁violence
▁membership
▁picked
▁collected
▁extended
▁religious
▁salle
RA
▁blend
▁Min
kal
▁featuring
▁researchers
▁Search
CE
▁recognized
▁semi
▁exposure
grew
▁candidate
▁shares
▁edit
CS
▁Cl
▁Enjoy
▁hurt
▁bottle
▁Buy
▁superior
▁missed
▁workshop
action
ple
▁Schul
▁houses
▁2017,
▁killed
▁calendar
▁Mike
FA
nut
▁establish
▁alcohol
▁closely
▁MA
pul
▁defined
aires
▁Shi
▁plays
▁sister
▁cable
▁desk
▁apoi
▁identity
▁stars
▁fata
▁obvious
▁dental
AM
▁sharp
duc
▁manufacturer
!)
▁objects
▁Ag
referred
▁Ak
burg
▁nouveau
▁Pal
▁Arbeits
▁personally
▁Dé
▁import
▁justice
▁photography
▁portfolio
56
▁nouvelle
▁oven
▁400
▁mixed
▁relax
▁imp
▁».
▁mail
rage
nos
▁drugs
▁jede
▁einige
▁8.
ters
▁electrical
▁puis
▁films
41
▁moral
lage
▁spaces
▁Ed
▁classroom
▁große
▁baza
face
▁informed
▁improving
▁guidance
▁gallery
cular
53
Despite
▁forme
▁système
▁Win
▁Small
▁Mobile
▁tape
▁erhalten
▁movies
▁Unfortunately
▁Looking
▁guard
▁pr
▁confident
BA
bas
hum
ular
▁Still
▁flavor
▁boost
▁division
ising
▁monitoring
▁Sen
▁https
mainly
play
▁dynamic
▁coup
▁carpet
iner
ral
iser
RC
▁definition
▁Za
friendly
43
link
▁Multi
▁einmal
▁stopped
vel
▁ongoing
▁ancient
take
cia
▁USB
▁attorney
▁slot
▁Line
rice
ify
ó
▁flash
▁extension
▁Ende
▁powder
ească
03
▁normally
▁pun
viewed
ssen
ache
ește
▁PA
FI
▁Frank
▁apa
▁coast
▁boy
lim
▁putin
▁script
▁noticed
▁dealing
▁Trans
▁border
▁reputation
-2
HS
▁supports
▁horse
nik
▁clothes
▁Card
▁relief
▁Visit
▁luni
81
qua
▁Comp
▁investigation
▁depth
▁earned
▁Ren
▁Dumnezeu
▁Joe
▁goods
▁Vol
▁certified
▁favor
▁Scott
▁protest
▁pace
▁Angeles
inch
▁charged
code
▁convenient
▁Nord
▁yesterday
Dacă
▁Travel
▁kid
ction
▁groupe
pu
bzw
▁mixture
▁Farm
▁acces
matic
▁comparison
reich
pet
▁lit
▁organized
just
▁fellow
Ver
▁trends
▁evaluation
feld
▁Pu
▁equipped
▁catre
eck
▁facing
▁instrument
▁pleased
▁tap
dom
▁pump
▁functional
▁authority
▁experiment
LO
▁scheduled
halt
▁ceiling
▁Step
▁orders
▁speech
▁stands
▁disc
▁rec
▁Text
▁banks
▁oameni
▁communications
trag
▁trail
AN
▁Federal
▁quote
▁spus
▁managing
▁booking
▁Blog
▁tank
pon
GE
▁fiscal
▁satisfaction
cre
▁protected
▁enfants
▁dort
▁Mel
▁turns
▁savings
▁voir
▁Boston
▁debate
▁SO
▁tables
▁honest
mate
▁chart
decât
▁Radio
54
▁vol
last
▁tall
▁Should
▁sink
▁Right
▁male
▁Modern
▁indeed
▁Garden
▁Mod
▁turning
▁inches
▁Police
▁Pay
UE
mé
EE
▁cookies
rip
▁Motor
▁lung
▁Ap
▁sustainable
▁instant
▁Rose
▁Carolina
▁Help
IE
▁Jersey
▁Spanish
▁wheel
▁fishing
gram
▁ST
▁Nov
▁reporting
ked
▁Leben
▁organisation
▁tiny
▁Alex
▁obtained
▁Acest
▁dangerous
utter
▁rev
Un
▁revealed
▁decade
▁possibility
service
è
▁Chief
▁Durch
▁cadre
▁wearing
sized
LY
▁unser
▁2016,
▁fail
iques
▁Angel
▁transportation
▁dates
▁danger
▁forum
zug
▁filed
loc
éri
tribu
▁entered
▁porte
▁arts
▁reform
▁Main
▁dir
▁approval
▁juice
vier
▁nivel
▁returns
▁formed
▁combine
▁cours
▁Standard
▁certification
escu
▁achieved
▁Model
rul
▁Tage
▁injuries
▁Sal
▁expenses
▁cet
▁taxes
diesen
▁fairly
▁Access
wind
IM
ense
▁hang
▁citizens
3%
lum
▁discussed
AC
‘
▁Sol
06
stellen
▁participation
▁Box
▁bieten
▁Louis
▁lessons
▁visible
▁Cam
▁Ban
▁Far
▁travers
▁telling
▁magic
▁Night
▁judge
▁Pat
▁Southern
OL
fully
▁acestea
▁Order
▁facut
▁Matt
registr
▁Yet
ß
▁făcut
▁versions
▁Force
rick
▁rund
ike
▁Young
▁ski
CU
▁Second
▁graduate
▁Bible
▁vary
▁celebration
▁risks
erii
rance
▁MP
▁tale
▁Ford
▁attached
▁Sy
▁Ly
stellung
▁trop
▁années
▁linked
pit
So
ţe
▁origin
▁boys
holder
read
▁relative
▁industries
making
▁tun
▁forced
▁Welcome
▁explained
MP
▁Three
aza
▁1999
▁erst
RS
▁attractive
▁visited
▁nom
▁drum
cast
ogen
▁tech
▁Comment
▁Little
▁suggested
▁gar
▁crack
▁shooting
▁Try
▁Remember
▁folks
▁MS
▁Dia
3)
arbeit
▁pepper
zz
▁extreme
▁extrem
▁severe
▁networks
păr
sent
▁structures
▁Join
▁privind
▁marriage
▁liegt
eben
▁produse
▁tested
▁Queen
▁Tax
rian
▁Problem
izat
udi
▁LA
▁afford
▁percentage
▁cute
▁gorgeous
▁indoor
▁configuration
▁immediate
▁exemple
▁Being
▁introduction
ella
bare
▁besser
▁Put
gon
▁Italy
▁Thus
tari
0.000
▁Price
▁Trust
▁contra
▁layout
▁Ireland
ctor
atoare
pra
rent
▁Seite
▁ori
spiel
▁Times
primarily
nov
▁desired
▁Would
PL
▁originally
▁Ana
EN
▁occasion
▁grant
igkeit
▁scheme
▁2015.
izare
gate
▁poker
pping
▁Wild
▁YouTube
▁assume
с
▁rapport
▁labor
teur
▁genre
▁plat
▁listening
sky
▁neighborhood
▁3-
▁Library
agit
▁platforms
bei
AB
▁manufacturers
▁printing
▁crisis
▁Smart
▁drawing
MO
▁durable
chant
▁chemical
▁savoir
▁Max
gestellt
▁rural
52
▁invited
▁fil
▁Rob
▁Bell
▁neck
pac
wal
▁là
▁Virginia
▁applicable
▁abuse
aide
▁increases
▁moi
▁Non
▁Produkt
FC
▁shops
▁prendre
atul
▁sal
▁société
▁Hot
rim
gue
▁enterprise
▁33
mittel
ged
▁formula
▁spin
als
2%
bon
▁Executive
▁wirklich
îl
1.
▁Arm
▁rid
aries
▁incident
▁copii
▁Charles
▁meals
▁wireless
Ex
▁Financial
▁AM
▁fest
▁Ol
oir
300
▁punct
▁Mad
▁Ali
lag
▁ocean
▁mirror
▁Additionally
alia
▁county
▁hip
dale
▁Stra
▁drag
▁Sand
▁historic
ière
▁examine
soci
ime
▁Insurance
▁crime
▁pare
▁craft
▁Building
mission
▁Americans
▁mg
▁passage
▁deposit
▁widely
nch
▁Coast
▁recipes
▁Ziel
▁duty
▁gerne
most
▁argument
▁root
▁consult
▁muscle
▁spoke
▁Cum
▁orange
▁reader
schw
▁commission
histoire
▁represents
▁meilleur
▁10.
HA
▁Systems
▁blind
▁HP
▁doi
▁signature
▁invite
▁Samsung
▁liber
▁letters
▁primul
▁losing
resulting
▁Computer
▁poll
rile
TI
▁cur
▁fonction
gat
AA
tiv
▁Str
ești
▁officer
reducing
▁gifts
▁performing
▁»,
▁guitar
▁segment
▁Tar
▁ultimately
▁cam
▁Arbeit
▁accessories
bad
home
▁clip
range
CM
▁printed
▁Pet
▁attract
date
▁Senior
▁genau
num
▁attended
▁Turn
▁History
some
▁describe
▁Lee
▁Fre
▁league
new
tors
▁storm
▁Beispiel
▁index
▁awarded
state
▁1990
▁ends
kor
far
▁Page
▁promotion
▁weekly
400
iuni
▁Summer
▁thin
▁dafür
51
PR
▁Hy
gas
▁atat
▁mining
▁principles
gent
ika
▁religion
▁ordered
▁developers
▁pleasure
vit
mers
▁Section
▁por
▁Name
▁pink
dig
▁eligible
▁Happy
▁fo
▁availability
GO
▁Europa
▁Unit
▁1000
▁Berg
fini
▁$3
iza
▁promo
▁Low
abord
äh
▁Professor
▁array
▁hate
▁recording
RI
▁proof
lay
DE
▁surprised
▁boxes
▁noastre
zie
▁însă
▁ajuta
▁weil
▁whenever
shi
satz
▁remind
▁consist
▁motiv
▁PS
▁trois
pad
▁besten
▁Stone
itz
fit
▁Mountain
OC
▁depends
▁Cover
▁bags
▁Bel
▁Engineering
▁flower
▁gratuit
▁smartphone
stan
spect
SL
sho
▁Ser
▁Perhaps
▁codes
▁Wind
aient
▁Prin
▁(1)
▁figures
▁ausge
▁episode
▁Spa
▁Silver
▁Sky
▁capabilities
▁Uni
▁încă
TO
▁Hal
ghi
▁sofa
hard
▁FOR
▁Ber
▁firms
▁memories
▁lift
▁sending
▁narrow
▁Steve
▁integration
known
▁nostru
iţi
▁Georgia
▁slowly
iere
aka
PE
▁venue
jar
buch
rad
▁resistance
▁stehen
chin
▁weak
▁DVD
▁bodies
▁split
What
setzen
▁loves
▁kleine
▁increasingly
▁alert
▁AC
▁partir
▁ratio
▁keeps
▁Area
▁données
▁flag
▁NO
▁hotels
▁debut
▁suffer
▁hidden
▁clothing
▁household
medi
▁reste
bro
▁Bus
▁Ken
IR
▁suffering
▁publication
▁Mat
▁impression
▁founded
▁stable
▁promise
▁Cloud
▁prison
cor
▁Sports
▁erste
shire
▁recommendations
▁permit
▁tomorrow
▁lucky
▁realized
▁famille
▁Zealand
▁wooden
▁east
▁Bereich
während
rite
▁fla
platz
▁zero
▁priority
▁Airport
▁Kauf
▁ultimate
▁chest
▁tone
▁Kal
▁supposed
▁vedere
▁50%
▁Ger
pack
▁priv
▁Kit
▁tent
▁guidelines
▁Republic
including
▁chief
▁Living
keit
▁convert
tail
orient
eigenen
▁soup
▁zona
▁composition
▁Bob
▁exception
▁cr
▁str
▁Fl
AT
kel
▁pricing
▁Mass
vir
leg
▁rating
▁Sale
▁somewhere
▁submitted
▁Pop
▁papers
▁authorities
▁Person
▁kill
▁suggestions
-6
▁dust
taire
▁recognition
3.
▁Mont
▁produit
▁transmission
▁Th
▁passing
▁Partner
▁dire
▁DC
▁sky
▁Kitchen
▁fluid
▁scored
▁chapter
If
letzten
▁officers
▁avem
ister
▁involves
ico
bur
▁mieux
▁Photo
▁Cro
▁professor
▁besonders
д
▁alongside
▁stored
▁activ
▁setup
▁extract
▁accent
▁replaced
tec
▁Natur
▁Pacific
▁NY
▁Capital
▁forest
incredibly
▁choix
▁seriously
▁konnte
▁2014.
ensuring
▁handling
▁9.
▁relations
▁Kom
▁Hol
▁none
rob
▁Forum
hour
ème
▁Space
▁Ham
rap
▁Michigan
km
▁utilize
lov
▁luck
lä
▁healing
▁neu
aging
▁compliance
▁vertical
▁FREE
▁differences
▁Server
▁estimated
schutz
▁notamment
▁120
72
▁heating
late
▁younger
▁Intel
▁salad
▁commonly
▁treatments
▁speaker
▁producing
▁eggs
▁Spirit
▁beide
▁transaction
▁Machine
▁Games
▁niveau
▁Need
radi
mir
causing
▁début
▁rencontre
▁threat
▁enjoying
Com
▁Johnson
▁tournament
▁Micro
▁Drive
▁Cre
▁Lebens
▁categories
5,000
▁confirmed
pli
▁Francisco
▁raw
▁managers
ţie
UR
▁aproape
via
▁engaged
▁parti
▁posting
CO
▁bois
▁inch
vie
▁aside
▁exceptional
▁vintage
▁Him
▁expansion
▁Weg
▁authors
▁deine
▁Prime
▁scan
▁reg
ția
riv
selon
▁Studio
▁dich
▁vi
▁sequence
▁Four
RT
▁ihn
▁employ
umb
ită
▁Station
▁upload
▁upgrade
▁exterior
▁writers
▁plot
▁Gen
TER
-12
http
▁smell
post
von
mili
8%
▁Andrew
▁spun
▁grass
unter
▁burn
▁Gegen
fest
▁Northern
▁consumption
▁bird
▁Miss
anti
▁viata
bereich
▁Change
▁pouvoir
▁demonstrate
▁requirement
BI
ied
▁spray
▁calitate
▁souvent
▁samples
▁compete
ank
année
wick
iff
noi
ography
▁SE
▁250
▁wealth
4%
▁swimming
enne
Qu
▁connections
onne
▁Way
voll
▁extent
▁objective
▁clinic
NA
▁Hope
▁coat
▁depend
▁tine
acc
▁editor
▁Jim
600
▁module
▁deja
atur
▁maintaining
▁hoch
▁covering
vielen
hem
▁illegal
▁certificate
▁collective
▁blow
▁programming
HE
▁Division
▁ceux
▁saved
▁worst
▁arms
▁Officer
▁association
ington
▁belle
tting
▁attacks
▁vei
▁gerade
▁strain
▁offices
EM
EST
-8
▁faculty
▁Plant
pla
card
▁loose
▁PR
profit
▁channels
ATE
atic
wegen
word
▁sehen
▁nombre
▁DO
▁hoping
▁wollen
▁decat
IF
▁permission
▁Williams
▁beer
▁dernière
▁purchasing
▁pride
solv
ego
▁Oil
▁dishes
▁Baby
▁Roll
vez
▁drept
lly
▁potrivit
person
▁interactive
▁brilliant
▁000
▁giant
▁plain
▁lock
▁inspection
▁symbol
▁Gal
▁concepts
▁venture
▁Tr
▁Color
▁behalf
ink
atii
wie
▁stream
▁buyers
legen
iness
▁absolute
▁council
▁displayed
▁Bun
▁darauf
▁rod
▁repeat
quelle
lation
gul
▁compensation
▁string
▁joining
▁Pra
hab
▁plane
▁conversion
▁lesson
bound
▁seats
voc
▁Disney
esse
▁awards
▁initiative
UM
▁intelligence
▁laser
än
▁generated
▁allen
▁Aug
lini
▁Update
▁grab
▁Bridge
rock
hold
seinen
▁false
type
▁outcome
▁crazy
▁Platz
▁believed
▁adjust
▁entrance
▁Colorado
▁concentration
aid
▁regardless
▁mici
▁potentially
▁Custom
rag
▁employer
tagged
▁34
fro
▁Pas
▁AS
PP
stru
grâce
▁anyway
▁streets
▁Region
▁newly
▁assistant
▁requests
▁Ohio
▁continuing
▁îm
7%
▁basically
gabe
▁ultra
pic
▁jeder
▁Cook
▁tie
▁yard
▁wash
▁3,
▁exista
▁egg
▁marché
kommen
▁Select
geben
▁Joseph
▁Ces
▁hundred
even
gal
800
▁Jones
ova
▁careful
▁alarm
NI
▁residence
▁wäre
▁Dor
▁amounts
▁mistake
ates
▁bune
▁vegetables
▁Ann
logical
stadt
▁chances
%)
▁minimal
▁naturally
▁Geld
▁Yu
▁wrap
rest
▁legs
PM
▁Heart
▁suspect
Go
▁Fil
▁YOU
▁victory
pun
▁Zo
CT
▁trim
▁stuck
ators
▁Ideas
▁voyage
▁Restaurant
▁pat
▁bond
▁Del
▁fighting
▁concerning
▁etwa
▁Thema
▁preferred
▁pitch
▁Singapore
▁tub
FT
▁Product
▁applying
▁Fr
ţa
▁iPad
PD
▁comun
▁pie
rank
tron
▁pest
▁herself
▁intense
foot
▁1998
▁anxiety
▁portable
▁harm
▁admit
sted
▁regions
cie
▁robust
▁stem
▁roles
▁Latin
▁Ré
▁ref
isme
▁contribution
▁forever
▁frei
▁mont
that
▁sensitive
▁wider
AF
▁liability
ţiei
▁Cho
aria
rang
▁Account
▁III
▁tooth
▁factory
▁dropped
horn
RP
▁container
fran
▁lawyer
▁Image
HO
▁incorporate
▁lume
GA
itati
autre
ierten
[
▁packages
▁Simon
▁somewhat
mbo
lite
▁eliminate
▁decrease
▁geben
▁approaches
▁tissue
▁personne
ional
unable
▁Case
hill
och
▁minister
▁Rad
▁yoga
▁encounter
text
▁OS
▁opera
▁loving
▁birds
▁prim
easca
park
fü
▁champion
▁warning
DC
▁yield
raum
▁Student
▁Rev
▁Fu
▁intra
▁proces
▁margin
lands
04
▁Steel
▁besoin
şti
▁39
▁outcomes
wert
3,
▁hole
▁Create
▁hall
nach
▁indicate
cum
▁Mann
▁reaction
▁empty
▁Sign
▁pm
erung
▁würde
▁declarat
6%
▁Client
vil
▁electricity
▁75
▁buna
eşte
▁prop
▁journal
▁meu
▁chef
▁Ever
▁feelings
PT
▁proposal
▁Its
▁2013.
▁Bundes
▁droit
▁10%
gard
information
FE
▁Dun
▁Stock
ație
▁mag
▁br
▁sight
phone
▁Cy
▁opposite
ically
großen
▁Without
espace
▁chairs
▁matches
ateur
▁Cost
▁WordPress
▁Opera
walked
▁transactions
▁nuclear
ways
▁Oct
▁bomb
▁tracking
▁photograph
bio
▁branch
▁$5
▁diagram
▁Hard
bach
▁42
logy
▁tile
▁API
seront
ENT
▁accommodation
▁fiber
▁Give
▁Gas
▁Spain
▁listing
▁blocks
▁constitu
▁convenience
▁prize
▁aircraft
containing
▁vice
▁organisations
▁complicated
rons
▁bars
était
▁checking
vant
▁couch
▁brush
▁printer
▁Rat
▁announce
▁salari
▁Sk
pal
▁yards
▁flexibility
▁jamais
UC
▁4,
▁Made
▁solche
▁tri
▁outfit
м
▁encouraged
trac
▁genetic
▁beneficial
mă
involving
▁knee
▁respective
▁controlled
▁Rück
LC
▁highlight
chem
▁Bis
▁graphics
▁posibil
orul
imagin
▁draft
shaped
▁suggests
uvre
page
▁sentiment
▁loop
▁Quality
▁volunteers
▁representation
▁examination
▁(2)
assi
▁till
▁Catholic
▁2020
▁random
tage
▁baking
▁Musik
▁SC
▁möchte
▁gene
▁kam
▁inspire
unk
▁Final
▁jeden
▁LLC
▁sistem
▁stages
▁texture
rib
lung
▁breath
▁hosted
▁Kingdom
▁politics
▁mood
cam
▁liked
▁Credit
tisch
▁everywhere
▁poti
▁fruits
oire
▁mesure
▁Studies
▁provision
▁Maria
▁necessarily
▁Net
▁scar
▁tracks
▁ads
termin
▁Yo
atory
itoare
▁colours
▁correctly
▁Trade
▁Week
▁Premier
▁designers
▁BE
▁desktop
▁lifetime
▁Kind
▁divers
rain
▁Von
▁bal
▁shots
▁accommodate
▁Paper
▁interaction
▁acquisition
▁neuro
▁institution
▁automatic
▁assess
▁manifest
▁audit
▁câte
▁insight
▁lange
▁retirement
sons
▁Asian
▁rail
▁Awards
Avec
SO
para
▁tant
▁strike
▁transformation
▁leicht
л
fat
▁Qui
▁chip
titude
▁Projekt
▁statt
▁findet
▁telephone
▁staying
▁Mess
▁patio
▁afla
▁administrative
▁gemeinsam
▁suppliers
ark
▁rice
▁stretch
▁compact
fire
в
vision
▁Mag
▁dreams
▁funny
▁lässt
cade
▁drama
▁schimb
PO
▁Sim
▁motivation
▁presents
▁1997
agi
▁optimal
▁folder
stro
▁Han
▁Ei
▁pus
▁Learning
oop
▁Type
space
▁define
▁plug
yard
▁utility
über
▁commun
▁directed
▁consent
▁DNA
▁statements
real
active
school
▁mic
▁acestui
scale
▁Mid
▁Chair
к
▁Bas
▁38
erin
▁Everyone
COM
▁chronic
▁doctors
▁sh
sport
▁volunteer
▁drinking
▁Mas
▁pursue
▁exposed
exe
hung
▁Tier
▁plac
▁proiect
▁literally
▁acolo
▁User
UT
▁hyper
▁seed
▁literature
▁Holy
▁jeu
▁licensed
station
▁criteria
▁sufficient
▁gestion
▁pic
▁64
▁facts
▁Bild
obi
▁nie
▁Jewish
bor
▁1980
▁Fach
craft
▁Pakistan
▁Mos
▁toilet
partea
case
▁clock
▁parc
▁legislation
▁icon
etz
ept
▁Corporation
▁requested
▁column
rier
uß
▁wohl
tell
gno
▁diseases
Sch
▁colon
▁Based
▁flu
▁vocal
▁virus
▁traveling
bul
т
city
AU
wide
▁solo
▁functionality
▁reveal
sign
▁closing
▁peak
▁practic
than
▁driven
êtes
high
power
▁Lin
▁dose
▁pocket
▁Classic
▁packaging
▁distinct
▁côté
▁breast
▁folosit
▁drinks
▁Dog
ailleurs
▁caz
▁escape
▁warranty
▁pulled
data
▁facilitate
É
▁SP
lant
AD
▁Print
mond
▁strange
▁Hor
▁Collection
arm
cas
arrow
▁carrying
▁wave
setzt
▁construct
▁acts
▁Action
▁Kim
oxid
fish
▁damaged
▁Greek
▁belt
▁Prior
▁marks
▁lumea
▁twenty
▁locul
▁Army
apt
▁limits
▁cruise
▁List
utilisation
▁personality
▁sections
▁drawn
▁mold
▁Think
▁holidays
▁critic
grade
▁sick
▁characteristics
▁echipa
▁Fast
▁Br
▁Reise
teen
uci
!”
ppe
▁talked
▁gap
homme
▁interact
▁dollar
▁bone
▁Einsatz
▁sad
any
tation
▁Haupt
iva
▁Schu
▁evaluate
▁variant
▁IS
▁PRO
▁vine
rut
▁existence
-7
ancy
▁Want
alism
ranging
preis
All
▁reception
mai
▁lease
▁finest
▁evident
▁Easy
▁gilt
▁trips
▁skilled
consists
front
rati
▁Following
▁Medicine
▁pune
▁errors
arian
lib
SR
ML
▁Safety
▁clar
New
▁37
▁Administration
▁2.0
▁obviously
▁Mitarbeiter
▁improvements
▁Cut
▁Natural
▁arrival
▁pizza
eşti
cept
▁livre
▁nombreux
▁authentic
▁gemacht
▁broadcast
▁stronger
UP
▁centers
▁petite
▁spots
▁crystal
▁salon
▁gained
▁Mus
▁lens
▁ihm
minute
▁greatly
LP
rait
▁bid
▁cit
entreprise
▁55
▁respectively
▁lo
▁cons
▁Energie
▁OK
▁grill
▁heading
▁sollten
▁Fragen
▁Poli
▁studying
▁développement
▁foam
▁1996
▁disaster
▁cafe
▁moves
focuses
▁Avenue
▁humans
▁(3
▁région
▁DJ
shop
▁acting
▁Justice
▁trouve
▁Estate
▁strict
▁talks
▁mat
▁completion
delivering
CD
0%
▁creativity
BR
▁occurred
Car
▁rising
gger
▁Gene
▁workplace
phy
▁Bla
▁trailer
▁Forest
▁profession
▁Father
flu
tone
▁sexual
▁Map
OT
▁Us
tôt
▁Wert
preparing
isé
▁lake
eed
jun
▁implemented
vid
igne
▁follows
▁Eric
body
▁contained
▁massage
AV
▁insa
▁observed
▁marque
lines
▁Frage
largely
gegeben
▁colleagues
pha
▁representative
▁shut
▁secondary
▁exhibit
1)
mid
▁Due
▁initiatives
▁occurs
lent
▁façon
▁iOS
▁exploring
▁stations
nton
▁Country
▁shouldn
▁casual
-18
▁maintained
▁cart
▁propre
▁asset
firm
gla
viv
▁scientists
▁Nor
ites
▁engaging
My
▁workshops
ffer
activité
▁tension
▁dual
uer
900
SF
▁kannst
▁bur
▁visitor
▁granted
▁union
▁tablet
▁Choose
ibil
▁settlement
genommen
▁marked
▁diagnostic
▁prayer
▁Toronto
trans
▁respectiv
▁2012.
icul
▁satisfied
▁Fla
▁estimate
▁Agency
OD
▁McC
bert
▁seal
aine
▁cauza
▁wallpaper
▁alb
▁Sound
worth
chten
programm
▁pounds
▁coaching
▁Furthermore
▁Korea
▁flour
▁sommes
▁Repair
”)
itch
blu
zar
▁diferite
▁Golf
arch
▁panels
jan
“.
izarea
▁golden
▁flying
▁museum
▁equivalent
▁Lang
schi
MI
▁faci
▁Rahmen
▁attending
′′
▁Tro
▁gaming
▁aujourd
▁Wochen
▁entering
its
▁Private
▁Ocean
▁01
▁coloring
ător
▁flooring
▁downtown
rab
HI
▁illness
▁whil
▁diamond
Mail
▁Dream
▁Golden
▁rein
▁hi
▁expressed
▁luat
▁Share
▁Programm
▁Sales
▁prof
▁MO
▁Short
▁charm
▁Cer
▁Run
▁tutorial
oul
▁Fest
▁uniform
aß
▁pipe
▁Square
▁Kosten
▁checked
▁65
▁Adam
cel
ello
▁Res
▁drain
ză
▁Tech
▁strive
cycl
▁stark
load
▁Stat
▁Rec
ians
▁Tin
▁Agreement
▁pret
-9
▁sentence
▁Direct
▁Rep
▁Prozent
▁invitation
▁refund
▁Kids
stock
TP
▁tau
from
▁Ash
store
▁Common
▁Qualität
▁strongly
▁importante
ome
▁surtout
enables
▁decent
▁neutral
▁produs
bury
▁Level
▁interes
mov
▁backup
même
doc
▁#1
▁specified
▁founder
And
isten
▁lecture
▁wake
▁vraiment
▁swing
▁addresses
▁Verfügung
▁deadline
н
▁Content
▁Gre
▁Experience
tura
▁exit
▁Britain
▁Sunt
▁documentation
▁showcase
▁photographs
qué
zin
pres
▁decline
▁Large
▁bills
▁entitled
▁passionate
▁workout
▁Again
▁Haut
▁guaranteed
▁vue
▁farmers
▁admission
▁manière
▁reverse
▁FL
▁terminal
GI
▁speakers
▁responses
▁Doch
▁2013,
▁phones
ential
▁operator
▁steam
burn
▁seul
▁unusual
▁educate
▁Que
▁believes
▁succeed
▁delay
▁deeper
▁reaching
▁objectives
▁temporary
▁artistic
▁sou
▁transparent
There
ception
▁excess
▁gathering
▁Save
ază
▁français
▁laid
▁modul
avoir
under
dding
▁falls
▁Möglichkeit
▁ceremony
rai
▁Bor
▁Below
4)
▁Field
wear
motion
print
game
▁Irish
▁Las
Among
atori
▁ajuns
▁alive
▁retour
▁smoke
▁math
▁Ye
▁Denn
▁1995
▁bani
raz
world
▁engines
nehmen
stor
▁interpret
▁Ven
▁cotton
▁represented
▁fabulous
▁gender
Mar
vic
▁newsletter
sburg
pond
▁Carl
▁bunch
▁tower
▁trigger
▁explanation
Man
iunea
▁announcement
▁seeds
▁shell
▁Working
viz
▁Simply
sub
▁Village
▁falling
▁fits
▁wichtig
▁Down
bble
▁Orange
promoting
▁rapidly
▁translation
nig
fusion
kosten
2)
▁Express
▁Sw
▁frequency
▁diversity
MT
▁bekannt
lion
▁cop
▁Customer
▁demands
▁corn
▁Hamburg
SD
▁Rome
▁Pur
▁stamp
▁grateful
RM
▁Pl
▁Tele
▁plugin
▁maxim
▁Hoch
igung
▁Entwicklung
▁File
▁Eastern
▁scrap
▁acquired
sau
▁Klein
▁milioane
▁Stand
▁childhood
▁artificial
▁substantial
druck
▁Kra
▁performances
▁row
NT
mod
remained
▁nimic
▁Limited
▁cookie
▁retain
▁600
▁eigene
▁tune
NS
▁dad
Moreover
ès
▁worship
▁Material
▁verb
ziehen
lton
▁boot
plo
CF
GM
▁Mix
▁Front
▁repairs
▁proportion
▁habit
▁hide
focusing
▁Annual
▁twin
▁acord
ehr
month
venir
Or
awa
lass
ffe
iți
NO
▁scope
▁lowest
▁afraid
▁subjects
▁templates
▁jos
DM
ensemble
▁Ski
DP
▁grip
2-
▁sécurité
▁mono
▁controls
SV
install
berry
nial
shed
▁celle
FR
äng
▁gaz
êt
▁viewing
▁asigura
bling
master
▁Fin
VC
▁patent
▁Clean
▁1970
▁Char
thi
bli
▁haut
tica
▁venit
▁compatible
▁hanging
UN
▁forth
▁painted
lip
▁deeply
▁participating
▁Iran
▁conventional
ARE
▁accuracy
▁Familie
▁Dir
▁gehen
▁moderne
▁Iraq
▁vente
▁Donald
▁passer
▁mehrere
▁Everything
▁studied
▁acquire
für
▁gal
▁headed
▁screening
▁findings
▁nutrition
▁Secretary
duct
born
«
▁statistics
▁Sydney
▁Prof
▁dialogue
▁gather
valu
▁currency
▁Kat
gotten
main
▁coin
▁Nick
vă
▁Victoria
▁conclusion
▁lemon
▁Article
▁necesar
mag
▁riding
▁Eli
▁cord
wä
ußerdem
▁Bed
▁layers
▁harder
▁processor
▁Ils
▁Edition
▁Link
éré
▁nume
▁Boy
▁equally
▁Regel
▁hopes
odor
▁initially
▁$4
▁exemplu
▁vari
schl
▁southern
▁mein
▁1994
▁importantly
▁succes
▁developer
▁lips
▁attitude
▁Age
▁corps
▁clicking
▁putem
▁journée
boy
▁injured
▁watched
▁flights
turn
▁stainless
▁besondere
▁Tur
▁hiring
▁roads
ificat
▁Flor
▁puternic
▁unexpected
▁Est
▁adopted
▁Fox
▁contributions
sec
IO
▁santé
▁Tree
▁scurt
▁Products
▁forecast
▁actor
▁Gallery
▁continuous
▁Hat
▁slip
9%
▁depression
UI
abile
▁merit
▁Fer
▁robot
▁gel
▁gentle
▁wanting
▁understood
▁terrain
▁associate
▁discussions
▁Job
spec
Dabei
etic
gol
▁20%
▁grup
▁Doctor
verse
▁victim
ță
▁scores
▁Policy
▁Anna
IV
▁mineral
live
▁grey
struct
▁emails
▁anymore
▁productivity
▁Dark
▁neither
▁quotes
LS
▁Arizona
night
élé
▁assigned
▁satellite
▁stability
▁networking
▁Transport
▁persons
fund
▁pratique
▁inca
iller
▁packed
▁Vegas
▁offre
▁Bin
stop
mini
▁jam
cord
▁Beautiful
▁trash
▁wise
▁accounting
▁différents
▁stil
suit
▁vier
▁permis
flow
▁col
ected
▁singer
▁GmbH
tics
▁ser
On
▁insights
BB
▁differ
▁Glass
▁Six
▁subscription
BC
▁returning
kleinen
▁advantages
omme
lus
now
▁Pack
▁leak
▁muscles
▁davon
mph
▁temple
▁Après
▁Illinois
▁variable
▁judgment
gran
▁pose
das
ures
▁Championship
ebenfalls
▁hydro
▁angle
▁5-
▁gest
▁Frau
▁knock
FS
spi
▁Regional
lets
▁Date
▁Finance
▁Dann
Star
▁Creek
▁fu
wohn
▁anniversary
▁investments
▁universal
▁pit
ște
▁lab
dienst
▁pal
▁graphic
▁bearing
▁stylish
▁mé
▁există
▁découvrir
comp
ridge
▁heads
▁consequences
self
fried
▁inventory
▁strip
▁Civil
bell
▁neben
▁Perfect
▁Notre
▁fraud
▁employers
▁Jackson
▁probleme
▁richtig
▁Method
▁tired
dies
▁Number
rland
▁latter
rendre
▁cameras
▁euch
▁Description
Spec
▁mile
▁Challenge
▁Solutions
▁trusted
▁einge
rück
▁Ober
kes
▁Log
▁dessert
▁murder
▁1/2
▁Provide
nivelul
nici
▁observe
▁prescription
▁Sau
▁genuine
▁operated
▁generous
▁weapons
▁belief
▁consum
▁unknown
deoarece
Art
▁kurz
▁Gut
▁medication
▁Mau
▁divorce
▁claimed
halten
▁Cons
▁operational
▁Hong
VI
▁Blick
▁lamp
pati
▁4-
▁interven
ques
▁Talk
▁zeigt
▁targeted
round
enfant
▁Reg
▁instruments
▁calcul
▁Henry
▁Cla
▁rack
sehen
▁ending
▁resolve
▁advise
▁sociale
▁cabin
▁involve
gă
▁automat
▁consultant
Bu
▁safely
état
▁pros
▁lies
▁Brian
▁talented
pus
▁hub
▁Ji
▁sought
▁energie
▁möchten
▁11.
▁Kong
▁grave
▁lists
tati
verschiedenen
dam
▁charity
▁breaking
kins
▁könnte
▁appointed
roc
▁Senate
wit
▁emerging
▁année
▁Cool
▁sensor
How
▁Ryan
▁computers
▁fault
▁présent
ulation
▁stir
lauf
▁AI
▁Bri
▁bain
▁5,
schein
▁weiß
▁possibilities
gur
▁hinter
Innen
▁vorba
fahren
▁Cell
univers
▁Follow
▁emotions
▁Ministry
▁curriculum
Je
▁gab
▁sigur
rise
Pri
▁stabil
▁superb
▁Oak
▁rubber
▁tag
PG
▁Heat
▁thousand
▁meets
▁faced
▁reserve
cateva
▁gym
▁vitamin
▁Rest
▁Single
▁Stephen
▁trick
DU
▁telefon
▁gând
▁primit
▁Connect
▁führt
▁Info
▁recall
▁restore
lege
▁franchise
▁seulement
reci
▁2019,
▁Ring
▁assembly
intérieur
▁shade
▁meaningful
bag
ONE
▁globe
▁WA
▁intervention
öl
▁Marine
▁Angebot
▁align
▁temperatures
ifier
▁Nigeria
▁survive
ounce
▁placement
▁deci
▁Taylor
step
▁Geschichte
▁Bet
▁Nature
▁FC
▁ownership
▁behaviour
▁deutlich
▁wondering
▁cleaner
uring
rä
▁ga
ador
▁artwork
ologic
▁eigentlich
▁hell
source
▁gem
▁boss
▁arise
about
▁SI
▁ME
akt
▁Style
▁Körper
gui
▁navigate
▁Meanwhile
▁așa
▁bulk
▁directions
▁brick
▁Poly
▁politique
▁patch
ра
commerce
▁înainte
▁intelligent
▁infection
▁Tru
▁raising
tragen
▁portrait
▁meisten
▁organize
metric
▁Season
▁enforcement
origine
▁Ros
▁Mount
have
▁romantic
▁comic
▁greu
ET
▁hook
▁mort
▁indicated
▁7,
▁Neben
yer
▁momentul
note
▁baz
▁abroad
nite
▁bass
▁norm
▁É
4.
▁province
▁merge
arbeiten
-20
▁Nicht
spo
size
▁assure
charge
▁olive
▁Pot
▁Figure
clair
▁discipline
elli
▁tackle
▁buyer
▁loud
▁180
▁căt
▁Palm
away
▁Mother
onia
▁Protection
auto
▁Version
▁Nice
▁12.
▁0,
ATION
▁Produkte
▁tube
▁Houston
chu
pas
▁Ele
▁mountains
PH
▁languages
▁servicii
▁Stay
fil
▁propos
▁coll
▁mor
▁arrange
▁sorry
▁instruction
▁holes
letting
▁wa
▁Feb
omb
▁prise
VO
week
▁Event
▁AT
ket
haft
▁hits
foli
this
GP
▁Pin
▁Stein
thing
▁emphasis
▁Mur
▁Bag
cons
tons
lash
▁Grant
▁pris
▁bună
▁buc
▁passe
▁jewelry
iens
▁forma
▁Med
laufen
▁hunt
stayed
party
▁fra
▁scenes
▁absorb
▁abilities
lug
▁Sarah
mpf
▁fle
accès
▁solicit
pie
▁Zum
▁universe
▁exists
oane
IVE
▁2011.
▁specialists
▁mess
fach
▁Recht
▁hack
▁jacket
HC
▁substance
▁signing
▁allerdings
▁publish
▁Lab
▁agenda
lane
stream
schau
▁realizat
▁supplier
▁moderate
▁tours
▁narrative
ația
▁maps
treten
▁mars
▁moon
rose
▁exp
zahl
psych
▁gehört
▁bound
▁submission
▁clubs
Am
tenir
▁boast
▁boards
▁Geschäfts
zing
wort
lid
▁contractor
▁donner
▁coupon
adresse
colo
▁perception
NC
▁abge
▁cheaper
▁grace
▁resident
kla
▁bug
▁Available
▁BA
▁Met
▁climb
▁expanded
ying
▁matching
▁suffered
▁employed
pper
▁experiencing
ddy
▁philosophy
▁utilisé
▁Jane
LI
▁elected
▁MI
▁ISO
winning
▁vot
▁generic
▁Bol
▁copies
▁mechanical
günstig
roy
Astfel
media
▁shoulder
▁directory
▁banking
▁mistakes
▁Fran
▁Jon
▁spare
metri
▁mask
▁consistently
▁Columbia
roid
essen
▁(“
▁série
▁Phil
▁usor
▁stood
▁racing
▁Comme
▁exceed
на
▁activate
▁circle
▁bold
▁handy
merely
▁Edward
▁contracts
ê
▁campaigns
▁ought
▁nursing
▁Jr
▁rarely
▁Mir
▁diagnosis
▁Theatre
▁producer
Currently
▁fitting
▁ajunge
minte
▁termen
▁Linux
▁1-
▁hätte
▁Resort
image
▁Rod
▁Fly
try
▁expense
▁Interior
▁fence
▁Kontakt
▁ALL
VA
▁Exchange
ranked
▁Performance
prim
▁basket
▁Vice
phan
▁broke
voir
arg
ART
▁floors
pression
▁possession
▁domaine
▁valeur
▁suddenly
▁mild
▁aflat
▁Tea
tritt
▁Mittel
▁regulatory
▁spectacular
fahrt
GS
MM
▁environments
▁Raum
▁lay
▁cré
▁Selbst
▁opposition
two
▁Clark
▁Netz
bald
▁Innovation
▁overcome
quot
▁Sin
▁Sto
▁grain
▁collections
▁applies
mach
▁wheels
▁universities
▁Ray
lina
▁arrangements
▁western
rous
aise
▁highlights
▁intend
aimed
▁Scotland
▁acestei
graf
duction
path
▁evil
▁scris
▁disposition
▁designing
zwar
▁Retrieve
▁aggressive
▁Glen
▁daher
▁Quick
▁recover
▁prominent
▁visits
▁Mis
▁edited
▁distributed
▁dés
▁alter
▁cooked
embl
Univers
▁Minuten
▁compris
rais
essentially
▁rel
▁appel
▁trace
relating
dès
aste
▁raison
▁frequent
▁beds
▁Miami
▁vibrant
▁Kam
▁klar
▁Tan
▁vidéo
▁Kur
▁themes
▁struggling
▁Magazine
maker
veni
▁Groß
▁streaming
▁analyze
▁titles
pier
▁participant
aims
▁convention
▁flood
▁nights
▁titre
▁voul
weit
where
▁Seiten
▁relaxing
▁piano
▁Pick
▁Sony
▁enhanced
▁visa
CH
▁instantly
▁Fan
▁diabetes
▁popul
Ang
▁Ask
cate
▁simplu
nahme
▁dentist
ubi
article
▁graph
▁rival
jahr
▁bloc
fern
▁dispar
▁servers
▁patru
▁Within
▁situated
▁HR
▁leaf
▁curs
antes
lux
▁1993
stance
▁northern
lves
▁contractors
▁dimensions
▁rolling
▁automobile
▁cru
▁displays
web
had
▁Never
▁2-
vine
▁Wahl
▁Markt
▁Double
▁acknowledge
stal
▁equity
▁ministry
▁Lor
▁sud
idée
▁measured
▁editing
▁singur
▁coal
▁dramatic
AG
asca
▁crash
ischer
▁Pla
▁psycho
piece
▁finger
▁Hollywood
▁Cr
▁locally
▁mouse
▁Base
uite
▁detect
cea
▁bull
▁curve
été
ddle
▁span
WS
CL
▁officially
▁corect
▁Artikel
▁customized
▁intellectual
▁heures
schule
▁investing
▁parallel
▁loi
ările
р
▁bench
▁principle
▁Galaxy
ța
▁(4
▁bedrooms
née
▁surely
very
stelle
activ
cite
▁Original
▁palm
▁losses
▁newspaper
ciu
▁Hold
BO
▁CON
▁modified
▁stake
▁Ton
▁luna
▁Mind
lap
▁opinions
▁Jordan
div
indi
▁Story
▁affiliate
▁matière
▁fifth
▁sheets
▁puțin
ush
geführt
▁Falls
legi
▁auction
▁cooperation
▁Fee
▁Daily
pies
▁basketball
removing
Besides
▁Body
▁AD
RU
ţia
▁Extra
▁Practice
▁Jeff
▁început
ching
▁Gift
kk
")
▁Austin
thro
▁camping
▁theatre
école
vient
▁faces
▁constructed
▁overnight
▁locale
▁roots
▁bu
4,
▁Enterprise
screen
▁Chef
▁Along
▁MD
▁Supreme
En
▁verwendet
▁processed
▁vendors
▁FA
▁44
▁beautifully
▁eficient
▁Wil
▁Member
▁damages
▁mutual
SN
▁Dave
??
stat
▁tourist
fie
şte
▁donne
▁shadow
▁dough
▁Gro
▁Mah
RF
▁mechanism
▁2011,
▁Alter
▁opposed
▁Fri
▁remarkable
oral
▁verschiedene
▁difficulty
▁Application
▁Hay
▁continua
EP
▁Pr
▁Lady
▁interval
▁Mil
▁2010.
VE
integr
▁création
weed
EG
▁6,
▁god
▁accomplish
▁thoroughly
2019
izer
▁Wal
ifying
▁Wohn
▁Holz
▁Advanced
▁honey
proof
▁saison
ându
▁Kevin
▁shelter
▁discut
▁hike
ités
▁boutique
▁Email
▁cosmetic
dian
▁hohe
▁absence
axi
nah
▁Frauen
▁actively
bind
▁everybody
▁controller
▁1.5
erau
gehen
▁scenario
▁odd
▁Ultra
▁finishing
▁cuts
▁financing
▁Chance
surrounded
▁joc
▁shelf
tief
▁Sir
▁Agent
▁scratch
2,000
nutri
nier
▁Dur
▁grid
road
▁pets
stud
OM
Die
▁800
▁arrangement
▁Sri
▁Patrick
ava
▁pension
dung
▁Chapter
▁Property
▁structural
▁overview
2015
▁lawn
▁Vin
lik
dus
Several
▁Bou
▁copper
▁duration
inate
▁podcast
▁Self
▁Construction
achat
???
▁Electric
▁Mrs
▁CT
▁proceed
▁Course
▁Frei
▁heavily
rique
version
▁representatives
▁tourism
▁shirt
▁rough
▁weniger
▁keyboard
▁heritage
kat
assez
▁cabinets
▁Komm
▁impressed
▁Oregon
▁Davis
specialized
▁gross
Located
ttle
▁2010,
chan
mine
▁aduce
▁subsequent
▁demo
aba
▁shock
▁theater
▁engineers
▁feu
▁Rot
▁addressed
▁Letter
gré
▁quantity
▁Seit
▁bacteria
kg
▁conservation
▁entreprises
▁pleasant
armed
dorf
fact
▁Much
▁laugh
▁blade
amine
▁insert
▁toys
▁в
cell
▁strengthen
GR
▁autor
▁LI
▁oamenii
▁Modell
▁sophisticated
▁Write
eți
say
▁nutzen
▁amenities
chel
Unlike
▁Bilder
fertig
PER
▁apparently
▁pointed
lop
▁commande
▁NEW
▁primi
▁aluminum
ificare
open
▁establishment
▁blanc
▁1960
▁parameters
schluss
▁jet
gam
▁oral
▁tons
▁AL
▁intention
ives
▁BMW
gun
leben
▁Fresh
▁tuturor
▁marine
mile
▁alta
nnen
▁courts
▁Hello
BL
▁reply
environnement
American
▁Tell
▁chic
bir
▁singing
▁earnings
▁ensemble
▁($
▁Tout
▁Abs
▁describes
▁navigation
▁destul
legate
tral
aţie
▁supplied
▁paar
ionat
9.
▁41
▁Track
▁happiness
▁Personen
▁sac
▁shapes
eld
bett
tile
▁divided
▁13.
market
crafted
▁periods
uş
▁trainer
▁Licht
▁advisor
▁Herr
▁Halloween
alter
▁radical
▁nose
▁Sat
▁Mom
moni
▁semn
vé
identifie
▁hatten
completing
▁gust
▁creat
ché
pay
▁Money
IG
▁Cash
altă
▁bekommen
▁43
▁supplement
▁Early
▁mattress
▁worn
rov
▁pray
▁beans
▁passé
▁facilit
▁meters
cke
▁Villa
▁Diego
▁chips
▁mes
▁Seattle
BU
▁nevoi
▁lets
▁hopefully
▁AG
liable
pound
près
arul
isiert
▁Expert
▁particulier
stoff
▁interpretation
După
sait
▁nouvelles
▁Ok
tap
▁targets
rung
▁stare
▁efficiently
EV
évit
▁Moldova
▁Face
▁flo
▁acestora
▁Victor
▁breed
morph
sley
mot
▁URL
ellen
▁resist
zon
ndel
will
▁alege
▁Easter
▁Bat
▁Höhe
▁fascinating
▁Know
illon
flex
who
▁Always
▁Bush
ICE
verein
▁später
▁cherch
makers
versus
▁Clear
▁Pennsylvania
Dieser
▁picking
▁restoration
▁interviews
pressed
nnerhalb
▁connecting
jou
▁react
▁Merci
▁Phone
▁1)
▁victims
▁Spo
atului
▁Harry
▁Sala
Pol
▁Clo
▁Erfolg
autour
▁Template
▁invention
▁schwer
vac
▁Trail
▁Vietnam
▁Size
▁Bern
▁emp
▁shake
▁Ave
▁productive
▁apple
▁portal
▁ceramic
▁pad
▁Syn
Ab
▁syn
find
▁settle
▁général
▁okay
▁receipt
orii
▁Mission
entrée
▁besteht
▁wisdom
▁heraus
▁balanced
▁habits
tang
ură
▁winners
ç
▁folosi
aliment
▁fiction
▁Spe
▁elsewhere
▁dependent
▁Anne
▁excellence
▁Feel
lieb
▁sectors
▁expir
▁surfaces
▁minim
▁tumor
▁paragraph
▁disk
▁tonight
▁precious
▁console
Th
neu
effective
▁Republican
format
▁preserve
▁wiring
▁exercises
▁pregnancy
tries
▁jeunes
▁publishing
▁nehmen
▁capability
▁prompt
▁Further
▁semaine
abo
▁evolution
▁Sud
▁frais
LT
▁stack
▁Inside
▁programmes
▁passes
mü
▁progressive
▁calculator
▁Core
BT
core
▁Moon
▁tender
durch
▁commune
▁Prince
▁demonstrated
▁conversations
▁fri
igh
being
pause
▁Bear
ayant
▁Industry
▁sponsor
▁numele
▁VA
▁Sommer
TB
▁optional
▁Landes
coli
empt
▁Iron
▁1992
▁attempts
halb
▁photographer
▁witness
bru
▁Ras
▁burden
▁kaufen
▁vu
▁Wedding
▁Kla
occasion
▁keys
▁oferi
▁puzzle
eaux
▁Eco
▁52
▁Elizabeth
▁dispose
▁cluster
iki
▁Guys
▁Economic
▁apar
▁ziua
▁integral
▁tac
▁restrictions
▁nerve
▁Stop
burger
explo
lö
NP
▁Brook
▁Close
▁representing
▁certaine
▁discovery
▁rece
FF
▁salary
▁Wolf
▁deserve
ţele
gathered
▁comply
lagen
ătoare
▁relate
▁Roger
▁blame
▁Jen
▁army
▁$10
▁Cabinet
Gu
▁wildlife
▁Memorial
▁Holiday
▁curat
iilor
▁fleet
▁reviewed
cet
▁virtually
▁Crusher
▁slide
▁générale
▁sensation
▁garlic
5)
▁batteries
SH
▁seller
design
5.
▁Overall
▁investigate
max
▁attach
▁Future
OUR
▁LE
▁bite
tige
▁twist
hole
▁Tony
LU
▁Organization
▁invit
▁Ant
NR
sorgt
▁Lan
▁Manchester
schrift
▁kg
▁aroma
▁Source
▁permite
▁Consider
▁Artist
▁transmit
oasa
▁Zen
ANT
▁consulting
▁commence
▁quilt
owned
▁bro
▁integrate
▁Ontario
TF
▁Study
▁ensuite
itatii
Mon
-11
what
▁Things
▁Eye
▁présente
tention
|
stall
▁beef
figur
▁cancel
▁domeniul
▁360
▁sleeping
▁traitement
ühl
▁Environmental
cier
▁NC
pub
▁addiction
▁nest
▁ON
▁discrimin
▁proved
▁occasions
OH
▁lawyers
own
▁Meeting
▁Industrial
owed
▁Cel
legt
ily
▁wins
▁strap
digit
▁hinaus
mple
▁(5
▁pdf
▁eco
▁junior
DB
gelegt
ION
▁competitors
▁Arab
▁Secret
▁Kunst
▁worried
meiner
▁Magic
▁groß
▁travaux
▁sollen
▁Sciences
▁athletes
▁discounts
kit
lind
▁enjoyable
ground
▁Tat
▁passengers
▁Dami
▁Major
watch
working
arrêt
▁subtle
▁epi
▁Jahres
▁cooling
▁makeup
jet
▁Given
plex
▁exploit
rine
▁delivers
▁summary
▁beaches
lift
▁Suite
▁Assistant
▁taxi
▁peaceful
▁Mode
▁Fun
▁diameter
▁phrase
ACT
▁différentes
▁14.
▁CE
▁2)
▁Nat
▁delete
other
hang
▁sujet
▁precise
▁Total
▁chambre
sati
▁Metal
rust
▁Brazil
▁hybrid
ops
▁electro
utz
▁quoi
▁adoption
3.5
50,000
veti
hir
▁adequate
ologist
torii
wasser
▁Authority
▁donation
700
▁somehow
▁kostenlos
▁generations
▁Turkey
rata
▁animation
▁CH
ending
welt
bac
MG
▁parks
▁placing
sort
▁Bitcoin
▁disorder
MAN
aught
▁guides
▁circul
▁Steven
rrière
▁Arch
▁plates
MR
▁cow
▁integrity
▁(18
▁totul
jack
▁privire
▁terme
▁execution
▁organism
▁führen
▁patron
▁appreciated
liant
▁Solar
▁vinyl
▁treasure
▁retro
▁bout
lab
▁dimension
called
▁intern
issement
▁Erst
▁stellen
▁familia
▁notion
▁Could
Getting
▁drives
▁Israeli
▁nations
▁duties
▁personalized
▁weren
▁chemicals
▁killing
▁masa
▁parce
▁lady
ides
▁execut
▁floral
▁Child
▁medal
▁casa
▁enabled
12.
nger
▁vent
▁urmă
▁Herz
▁Jay
.....
▁Kris
kenn
ress
weight
▁indicates
▁mentor
using
▁femmes
▁Jung
▁Send
▁seasons
▁aesthetic
▁Block
▁babies
zig
edge
▁alike
▁immune
▁magical
▁Snow
▁spacious
▁Melbourne
order
▁timing
▁inainte
▁width
bild
Tra
▁appliances
▁dirt
▁Rent
responsibilities
▁blogs
nächsten
▁argue
▁Resume
▁Michel
▁terrible
graph
bird
▁Simple
nning
▁coconut
▁comprise
heure
▁nichts
▁manufacture
▁Sar
green
lining
▁tremendous
▁Wine
gir
▁Nothing
▁Miller
▁Schwe
zone
▁cunoscut
rupt
kle
▁Bucuresti
▁Abend
▁aura
▁Dance
▁Wilson
icide
bai
oriented
▁celebrated
schlag
▁10-
Unsere
énergie
▁qualify
▁contenu
▁Lauf
▁einzelne
▁Youth
explains
grat
▁72
labor
2018
▁Dank
▁Hey
▁refuse
▁graduated
▁României
punkt
▁regulation
Bru
▁Side
▁sol
▁extraordinary
▁ging
▁Creative
▁expanding
▁problème
▁Reserve
auteur
sphere
season
frei
▁8,
▁filing
▁Complete
▁revolution
▁unele
/8
istes
backed
shirt
▁Details
rod
▁pod
▁operators
was
hou
▁Coach
irii
▁ordinary
Institut
▁Flash
0-
▁flavour
specific
▁landing
▁geo
▁legend
vari
rop
▁Excel
▁Flu
▁intent
▁Deep
▁Kor
▁Philadelphia
▁rând
▁USD
laden
▁Hin
hap
▁thorough
▁oferit
kind
▁Cancer
apo
▁valve
▁encouraging
▁sûr
shing
▁49
gov
▁Five
▁stroke
▁apă
▁gambling
▁nord
onal
▁captured
▁lucruri
serait
▁Members
ital
▁mounted
▁opens
▁Marie
Tech
▁wishes
▁regards
going
Opti
▁femei
▁Fish
▁mount
▁Hunt
▁probabil
▁assured
pho
▁manufactured
▁realistic
ații
▁Planning
▁român
ggy
▁produces
▁reminder
TION
▁brake
▁pla
▁Premium
▁carb
▁shine
▁carrier
▁poverty
▁effectiveness
administr
▁Chamber
▁suntem
▁noastră
▁sofort
▁moisture
limb
entre
▁SD
▁BC
▁selecting
achieving
info
▁membres
▁shoe
▁locate
▁assignment
lern
▁defeat
▁endless
▁Stunden
то
▁mur
▁wissen
aime
1-2
▁femme
robe
▁embrace
▁baseball
▁hunting
betrieb
▁gardens
▁risc
▁Cri
best
▁Audio
▁intens
▁Round
▁fireplace
▁dozen
▁hospitals
▁profits
▁Mail
obtenir
▁Ross
bun
polar
▁reflection
▁fut
phon
deck
renowned
▁cate
▁decorative
ieri
▁Tap
▁Dallas
rik
▁pied
rés
ppy
▁bitte
▁cave
▁rescue
▁Hilfe
▁Jason
▁Nations
▁profil
▁Atlantic
▁rub
▁collaborative
étude
▁Workshop
nez
▁chacun
▁Too
App
▁conseil
▁signals
▁Dead
▁Austria
▁slots
▁Dies
raj
stick
▁jaw
▁lounge
curi
nem
▁Cluj
▁rapide
▁companion
▁WE
▁bord
ody
gru
▁46
kra
eller
naire
hose
▁Atlanta
▁violent
▁imagination
▁reward
▁Korean
▁branches
▁GPS
glo
▁condo
▁Investment
▁involvement
▁trap
▁schön
▁ofera
▁unterschiedlich
Net
▁predict
identifying
▁noir
kos
poz
▁11,
▁fitted
MU
TT
▁vrea
▁wound
lac
▁purchases
▁Cape
▁Foto
▁acres
▁nec
▁burning
conf
▁browse
ural
▁Ah
▁stellt
▁ratings
▁Bowl
▁grav
titi
▁prêt
▁fallen
▁nombreuses
train
ène
Aceasta
▁drill
▁Exam
▁Furniture
eanu
étant
sville
▁swim
▁routes
INE
▁Por
ither
▁optim
▁lua
▁myth
▁Bett
chim
▁cyber
▁engineer
▁exploration
arranged
▁aged
▁beau
OUT
▁Minnesota
tress
▁Commercial
▁inspiring
▁Mare
apa
▁ignore
▁gros
▁measurement
ager
intele
▁suspension
▁cultures
▁Wow
▁pushing
▁bands
nage
▁Math
comb
▁créer
▁Lewis
▁VI
emploi
▁elections
▁logic
▁unlike
▁Matthew
▁pă
oxy
équipe
▁worden
dev
▁Massachusetts
▁Return
▁Friends
▁movements
chie
rak
▁Fit
▁copil
iunii
▁intensive
▁rug
lichkeit
kov
▁pense
pop
▁closet
▁prevention
▁Deb
▁devant
▁construit
▁breaks
otic
▁dig
▁près
chte
▁Chat
wel
▁edges
▁keen
▁infant
▁Hills
▁grounds
▁hab
▁Mun
▁references
▁hearts
exprim
▁tratament
LD
ssel
cover
bridge
▁Wein
▁voiture
▁Gemeinde
AI
▁renovation
bid
▁Reading
▁Gor
fur
▁Yoga
▁exclusively
▁emissions
ète
▁glasses
▁organizat
▁washing
▁Audi
▁Labor
▁legacy
▁abstract
▁knowledgeable
▁Glo
▁pregnant
liter
▁paintings
▁tête
voy
▁Jacob
▁dressing
▁provisions
bahn
▁depict
AW
▁bleibt
AND
▁fünf
▁hosts
vas
DO
▁max
▁contributed
roz
▁deschis
itaire
tube
▁Beck
▁curious
▁waves
▁regret
FO
droit
rö
▁Panel
▁pile
▁installing
▁Intr
nung
▁Outdoor
▁generator
▁zahlreiche
▁Third
frac
ovi
▁Casa
▁stomach
▁Lincoln
▁Electronic
coding
2017
▁friendship
ried
но
▁tail
▁petits
▁réseau
▁churches
▁marketplace
▁Pool
▁popularity
▁sprijin
▁Od
▁Transfer
▁fake
▁9,
▁weit
▁relaxed
pig
▁Lauren
gesetzt
▁Clar
▁unlikely
color
▁spouse
▁facile
▁Speed
KE
▁PO
▁Channel
argent
▁Making
▁Coll
cci
corresponding
▁heaven
ţă
▁darüber
acted
only
▁slight
lian
flă
▁vulnerable
▁creator
▁protecting
writing
▁Ter
▁barb
▁dată
▁Screen
▁BBC
Col
fung
▁dreptul
derived
▁designated
▁interactions
SG
▁häufig
▁Mega
▁jazz
lbs
▁Manual
pushed
▁analytics
▁lawsuit
▁gray
shirts
▁hill
▁1991
▁obligations
▁Dubai
()
▁acceptable
therapist
inger
▁territory
▁sang
ät
▁Zukunft
TU
▁horizontal
▁entrepreneurs
▁Eltern
▁presentations
▁confirmation
▁technological
▁1989
EF
ponent
NET
750
▁desert
▁contribu
▁Gun
▁Juli
ERS
▁inceput
▁answered
▁basement
film
▁taille
▁survival
ihnen
▁Bird
speed
▁journalist
▁Indonesia
▁15.
▁19.
étaient
▁tennis
▁aproximativ
▁Hans
▁Remove
▁cats
▁calories
▁limitations
▁subscribe
▁Dem
lust
▁adresa
▁sais
..."
▁Luft
DL
▁estimates
▁protocol
▁Namen
▁grands
▁voter
▁vacuum
▁versch
▁Democratic
▁Books
▁frames
▁Bee
▁helfen
▁dive
▁physician
▁powered
▁zones
▁regime
check
11.
▁plaisir
▁physically
▁Pul
▁jardin
▁Nur
WC
▁Lock
▁économique
user
▁commit
▁oldest
▁fulfill
▁nervous
▁SH
SK
▁plein
show
▁disability
papier
▁Corp
ători
nţă
▁overseas
▁struck
astic
▁advised
BE
▁UV
patient
▁texte
▁timely
used
▁occasionally
▁entries
underlying
01.
▁automated
yes
▁Staff
▁Einzel
quit
▁Cela
▁snap
▁followers
CN
▁Cooper
ô
▁memorable
▁jur
▁ajutorul
▁Enter
Often
▁dintr
-30
ESS
▁weird
▁Animal
▁complement
▁Bot
▁darf
yed
▁Mul
lick
▁Cambridge
adore
▁Dutch
▁Castle
igi
▁enemy
accompanied
▁teren
▁ET
ffle
-15
▁Geo
▁attractions
iker
▁bă
▁heal
weisen
▁spectrum
meld
▁eveniment
arra
rete
▁Had
looking
isierung
▁moyen
▁gesamte
▁destroy
125
▁suivant
▁declared
▁Urban
▁16.
▁Beg
▁canal
▁Pres
▁geeignet
▁strat
UB
▁Alexander
cycle
▁Var
▁domin
▁lasting
terio
▁Battle
▁publications
▁implica
▁NA
▁stocks
Plat
▁excitement
▁Muslim
▁Mari
▁Ul
nächst
▁trait
▁(3)
▁Attorney
▁Malaysia
▁slab
▁dam
▁Bir
▁sing
▁Culture
UD
▁Mes
ități
▁possess
enabling
▁settled
▁sagen
▁erfolgt
dog
ndu
ității
▁Islam
▁catalog
▁simt
tische
▁Mach
▁EP
▁Certified
▁Resources
▁Past
▁Termin
▁lightweight
▁championship
gebiet
▁jurisdiction
▁euros
▁Familien
▁GT
▁dvs
▁nouveaux
▁chill
▁ridicat
his
▁Indi
▁arrested
ităţii
onul
appar
▁Bachelor
▁erfolgreich
▁versatile
▁nécessaire
▁facial
▁Bull
Comm
atte
hom
start
▁roughly
▁bay
▁american
▁Wisconsin
▁Clinton
appareil
▁liberal
▁dau
ech
2014
▁lip
▁maintenant
▁Sil
rben
▁contents
▁magnetic
▁terre
▁Rights
lose
▁crown
▁oils
▁entertaining
▁Option
▁Previous
▁vrai
▁Auswahl
▁horses
▁Author
▁Writing
▁travelling
▁350
daten
zan
▁sweat
▁Junior
markt
after
▁admitted
▁1950
▁Sche
▁dorit
▁transferred
utilise
sitz
gio
▁bisher
RD
▁Wales
▁smoking
dire
▁seating
▁constat
▁Hub
▁sieht
▁prospect
▁RO
▁Wars
eek
▁Bring
▁bleiben
arri
inal
▁Maryland
▁Process
They
▁Oxford
▁neat
▁cinema
▁Ist
▁vegan
wall
▁motive
▁mature
▁Dragon
▁google
blick
▁Cod
▁suffi
▁terrorist
Posted
▁Schi
▁Marc
▁operates
gress
has
sole
▁Buck
impl
▁Ron
▁handled
▁Apr
▁Storage
▁temp
▁differently
▁wherever
matched
rios
▁surprising
teilen
▁difficulties
tab
▁Leader
implementing
▁workforce
▁bereit
vig
▁LOVE
▁instances
▁frumos
▁Java
▁arrest
▁apparent
▁hence
▁entwickelt
▁Fra
▁prend
ließ
▁drawer
ARD
▁caring
▁wollte
▁vielleicht
▁iconic
äch
abel
▁génér
ault
▁alternatives
think
ро
whereas
erei
▁Eagle
situé
▁laboratory
▁Nutzung
▁Bathroom
▁loaded
niste
som
▁aucun
gebracht
▁tomb
▁Ty
▁afaceri
tex
ality
▁identification
▁cultiv
Not
▁acestor
▁PhD
nell
▁dial
chro
▁specifications
anii
▁cloth
▁highway
▁Vitamin
▁indication
80%
▁Lion
▁10,
▁Werk
▁combin
▁releases
LL
ktor
ufgrund
calc
▁accomplished
▁los
▁distant
▁secteur
logue
▁betting
elf
puteti
▁Moment
▁scoring
▁freuen
▁fastest
▁directors
▁fame
▁complaint
▁Ep
▁delicate
annonce
ext
▁quit
▁Cop
prop
365
▁Say
▁internationale
cott
▁Whatever
▁admir
▁bucur
▁entity
▁dancing
▁printre
▁meditation
▁avis
▁1988
10.
▁worker
▁$100
▁contrôle
▁insist
ements
izate
▁tied
▁correspond
▁apartments
▁2009.
▁tiles
▁boots
▁laundry
▁Coffee
▁CV
▁composed
atom
▁shore
▁marijuana
plic
▁Zahl
depth
▁Egypt
▁NFL
▁12,
▁pollution
▁Vergleich
û
▁nurse
▁Susan
▁verify
▁kon
▁ulei
▁Sept
▁Location
▁frozen
good
▁cine
forming
▁Near
▁Tab
▁Alexandr
ст
CK
▁loads
▁disorders
hip
▁blessing
▁vechi
▁Bookmark
SON
books
▁tropical
▁Garten
ôt
tures
▁obligation
▁admin
▁sélection
disp
▁Anyone
keeper
▁konnten
▁existe
▁Rund
▁retailers
folg
▁urmare
▁Liebe
▁actors
▁Druck
lien
sian
▁partid
▁loin
AZ
oasă
▁inclusiv
TD
▁anului
poc
▁musique
▁Hart
Sh
html
▁serial
țele
inning
▁Bureau
▁rush
▁deosebit
▁Wort
▁Thailand
▁Language
▁Governor
▁Later
rilor
▁activités
schaffen
▁harvest
▁municipal
einander
▁fingers
▁sculpture
▁Bien
▁departments
▁période
▁jeune
▁governments
uter
Aceste
▁Deal
▁Equipment
nous
▁gate
▁meta
▁stiu
fold
▁seule
▁varied
hit
▁DIY
▁lemn
OB
▁colorful
▁câ
▁semester
▁dealer
nett
▁shortly
▁Driver
culture
▁permitted
▁sorts
▁crop
▁valoare
▁analog
▁excuse
▁modèle
When
▁march
haz
▁minimize
traction
▁caracter
▁modules
clu
ţional
▁breach
▁priced
▁attorneys
▁implant
▁ANY
dition
▁trials
▁Nas
Pre
lorsque
plin
Er
▁Dom
▁tire
sili
▁coins
▁rend
▁reliability
▁Analysis
▁trails
trägt
▁Kansas
▁responsive
▁disappear
▁stakeholders
▁aplica
▁imi
▁Laura
▁Terms
450
▁voltage
▁Gel
▁qualities
▁qualifi
▁Mé
bereit
gleich
▁voting
▁trademark
▁2.5
ND
▁Kelly
▁weiteren
▁filters
▁coût
jur
acre
▁retired
▁Engine
▁président
ajul
▁GA
rät
▁instructor
▁Allen
▁Delhi
▁cure
seite
coming
▁mixing
▁Kno
▁Sure
▁hired
▁participated
Count
treffen
▁54
▁rings
▁Thor
éro
▁buttons
▁47
▁Tel
▁suport
▁rhythm
▁Theater
▁informatii
hält
▁ouvert
fewer
▁alumni
▁valley
tial
***
kri
▁accidents
▁barrel
mobil
etti
▁immigration
▁poveste
hren
hydr
▁tweet
▁zip
▁Bonus
ordnung
liber
▁Navy
▁agreements
▁detection
DF
hur
0.00
▁07
etta
▁13,
rolled
▁injection
mig
wach
▁choisir
▁professionnels
▁Tower
▁neighbor
deutschen
▁luxurious
▁walks
reti
▁Pad
wise
▁exhaust
▁demonstration
▁agricultural
Upon
▁Blu
atorul
amour
issant
▁delighted
rita
requiring
ivity
▁Unser
FP
fait
dite
kul
arth
▁Ker
torilor
stage
▁HTML
▁Wheel
▁quelque
▁Ou
▁considerable
▁Sco
▁donations
dessen
▁pourquoi
▁Bow
▁Dupa
ska
hot
▁drove
▁oppos
▁hiking
▁Boot
One
▁guvern
▁15,
scheid
▁Miet
▁Technical
▁Dal
▁Metro
▁Baker
▁trece
tained
block
▁wander
▁penalty
▁shipped
▁30%
group
▁brothers
▁comanda
▁retreat
▁Movie
PU
▁Jun
▁$6
▁Fal
▁Palestinian
▁soccer
▁Autor
▁chamber
nement
▁offense
▁gig
▁abandon
▁Kraft
▁Medicare
▁soap
▁Fur
▁conditioning
rained
▁puts
▁cod
lassen
FL
▁komplett
▁entscheiden
▁Hour
?!
Stream
▁Grad
▁gently
▁poetry
▁secured
oph
hop
handel
▁besoins
got
▁Chrome
ILL
▁Schritt
▁spell
▁grinding
▁ramp
▁mama
▁bottles
▁canvas
▁ecosystem
aţii
cellular
▁Spin
▁Discover
-17
▁feeding
▁stops
▁haute
▁Entscheidung
▁semble
▁acele
▁Walk
▁joke
▁Fed
climat
▁Lot
runner
▁flip
▁werde
▁Deck
bala
▁sacrifice
cid
him
zahlen
▁heater
formed
plus
▁util
rama
(4)
▁knife
▁traditions
▁dip
kill
▁Rich
▁DI
▁containers
▁locuri
▁continent
teilung
▁vreme
organisation
serie
▁Diamond
magazin
▁poster
▁passenger
▁soldiers
▁urgent
▁Lip
▁aşa
▁BO
▁somebody
▁silence
cop
▁Burn
▁stopping
▁essence
▁hitting
▁producers
▁fibre
▁seasonal
▁tara
▁Jose
▁Better
▁steep
Alors
▁collecting
vre
▁disabled
▁voters
consuming
deemed
éra
opération
▁roller
Rather
▁leider
▁IV
▁erreichen
▁charging
tions
tiques
▁formats
▁painful
▁eager
generation
anna
▁races
force
▁ferm
▁breathing
▁offen
▁minds
▁musste
▁Vision
▁Installation
▁hesitate
▁somit
hôtel
cab
-16
▁Visual
intérêt
▁apel
therapy
volt
▁Rou
▁efficace
▁architectural
▁privilege
▁treating
▁Tam
tsch
building
▁associations
▁Consumer
▁Lim
newest
▁față
▁ships
lev
raft
▁variations
▁noua
▁Cab
1.2
▁ocazi
▁recommendation
titled
▁invoice
▁noastra
kur
issent
base
hä
888
▁declar
▁Football
▁Indeed
▁weapon
▁destroyed
▁enormous
▁blanket
▁aktiv
raw
▁computing
6)
▁Dam
▁confort
▁Gla
hardly
▁annually
▁destinations
▁guilty
▁scholarship
▁harmful
▁2-3
▁Race
▁hypo
▁shorter
quest
uze
izi
OO
▁Schutz
▁Teilnehmer
▁profiles
▁sustainability
▁emb
▁Augen
▁outdoors
▁Individual
▁pou
▁Together
HT
suited
▁tro
▁Strom
▁achievement
▁Range
tory
▁distribute
▁letzte
incorporated
▁Kir
ruf
▁disappointed
▁referral
flam
▁excessive
▁rapidement
▁Rio
aţia
▁meuble
▁2008.
▁Gall
▁française
▁ladies
ailed
El
▁wines
▁beispielsweise
▁gamme
▁guided
▁plin
Î
▁True
▁Temple
▁Pic
permalink
▁vedea
▁rank
▁Grill
clin
▁Hab
▁odds
▁anytime
▁Thanksgiving
guard
▁essays
▁PE
▁Rechts
mals
achi
▁Anthony
▁réponse
standing
▁Mol
▁Canon
▁silk
▁pourrait
▁raport
▁Woche
fallen
sting
▁circulation
▁skirt
▁Title
▁17.
▁Touch
▁utilizat
▁Organisation
▁mereu
▁oxygen
lique
▁consume
▁Barb
1.1
▁nicely
▁psychological
▁refrigerator
▁fantasy
▁dispute
▁IBM
▁Nation
▁mobil
▁density
ske
▁intimate
▁tailored
▁outline
TN
mur
GC
they
pag
▁Kultur
grün
voted
▁donné
▁Să
enberg
▁wi
▁Francis
▁Rick
accord
▁Zusammen
▁nonprofit
▁listings
6,
▁maximize
bud
▁promotional
cina
▁potatoes
▁mot
carries
▁stabilit
▁Door
▁downloaded
▁experimental
HD
▁parfois
▁zeigen
▁proposé
▁Verein
▁amestec
▁entreprise
▁PSD
▁bake
▁Rh
▁Mehr
▁purple
▁recipient
rare
egi
ancien
▁risque
▁mystery
mac
ibility
▁Moore
▁flavors
▁trauma
▁automotive
▁Anyway
▁simulation
▁crafts
▁measurements
▁cour
▁tard
nnie
▁Production
▁Cleaning
5,
▁Islamic
▁Gate
bay
HR
▁Offer
▁acceptance
▁Erfahrung
▁environ
▁fancy
▁bullet
organ
▁Peace
▁detalii
▁promised
▁wellness
▁satisfy
▁grants
accueil
▁oben
▁prospects
▁Events
2013
gesehen
▁£1
▁handelt
▁Spieler
▁Virtual
▁bubble
▁Trend
▁sistemul
▁Morgan
▁pole
▁spielen
tür
SCO
▁informative
▁affirm
▁Aqua
▁AR
richten
▁rewards
lub
shot
LM
Up
▁absolut
▁Mart
erweise
BP
▁difficile
▁Document
▁Sweet
▁indicator
▁Boden
mates
▁supporters
▁begun
▁blogging
▁CL
gres
▁preferences
▁screw
▁tutor
▁Additional
▁Bitte
utilizing
▁expérience
▁dur
▁precisely
▁janvier
AGE
moto
▁counsel
▁110
nick
licit
technik
▁collaborate
▁neighbors
tered
▁excel
▁Route
steuer
▁pioneer
nuit
▁skip
▁destruction
▁thesis
▁libre
▁petition
▁steady
▁medications
▁audiences
▁coaches
aller
3,000
▁anger
▁striking
▁shades
▁Sitz
▁gluten
▁egal
ania
▁defend
gut
▁reserves
▁advocate
▁Cit
▁technicians
▁cater
leitung
▁towns
▁Costa
▁confront
mount
▁nationale
▁adverse
▁couleur
▁delight
▁promises
▁silent
richtet
▁Companies
▁Charlotte
▁labels
▁Süd
▁Honor
▁complaints
▁siècle
▁suits
▁Bath
mise
▁acela
▁candidat
Flo
▁conservative
DD
▁changement
▁login
▁Fashion
reichen
through
aki
gna
▁verse
▁threats
▁Song
▁funded
langen
▁distribu
édition
▁royal
▁bevor
▁02
straße
edit
▁energetic
▁Carr
viol
▁niche
avais
▁backyard
▁Saudi
▁Zwei
▁Legal
accessed
▁choisi
▁GDP
oferă
hlen
▁Wor
▁cheer
▁barely
cost
▁Really
kol
▁binding
euer
▁optimization
▁Designer
▁measuring
ncy
weise
DER
▁$7
▁Anfang
material
▁antique
▁Certificate
▁modest
ției
▁praise
▁Springs
▁organiza
jurul
▁plumbing
▁foster
▁Wy
▁Sab
▁overwhelming
▁matin
▁responded
▁confused
▁blessed
▁160
▁ingredient
▁confer
▁Gesundheit
▁bucket
kraft
lange
▁Kopf
▁Prize
▁authorized
▁tick
▁steal
Depending
Depuis
▁functie
▁developments
▁Christians
▁calculated
▁Leave
▁Jam
▁habitat
▁Sorry
▁oficial
▁allein
▁concentrate
dica
▁Convention
illes
▁fum
▁Tal
Europe
▁attachment
▁sensibil
▁clue
▁specialty
▁Cou
▁liste
▁Penn
TRA
▁Themen
▁motivated
▁camere
▁14,
▁attendance
atorii
chemistry
▁roofing
▁Links
▁trou
▁trucks
hilfe
▁(6
vapor
mad
▁Albert
▁FIG
▁Rand
▁Constitution
ambi
▁Syria
▁Fond
▁gouvernement
▁Active
▁prints
▁weigh
▁Craft
▁projets
▁paste
anci
kie
▁gains
▁Record
▁beliefs
countless
▁tomatoes
arie
▁140
▁ethical
objectif
▁acestuia
▁Bluetooth
▁agriculture
uré
▁cale
▁articol
▁gum
▁vendor
ifié
▁peer
pod
▁utilized
▁Mü
owohl
hilst
frame
▁fridge
▁query
▁Survey
▁Hell
▁notification
TR
▁ultima
▁radiation
▁musicians
CAN
▁grocery
▁Sicherheit
▁Highway
▁Break
TED
ön
▁biological
qual
250
▁modify
▁Hit
▁Iar
aged
...)
▁contrat
▁centres
griff
Our
▁determination
▁variables
▁nuts
échange
extérieur
▁suflet
▁Scha
stück
▁Tau
▁participa
▁mad
▁relie
▁Fine
▁grape
▁wage
▁startup
▁blank
▁physique
▁punch
▁contacts
▁dezvolt
cross
▁TR
▁gener
▁indem
▁Stan
▁azi
▁Sel
▁Tot
vra
▁recruit
▁Yeah
/10
▁nail
▁Ky
▁beloved
operative
▁Tickets
▁tear
▁amp
▁04
▁illustrate
▁mac
▁receiver
atrice
▁souhait
▁Gewinn
▁Vit
roch
▁arata
▁Indiana
child
▁invested
▁Excellent
gori
▁thermal
Str
▁liver
miss
▁utiliser
▁prest
2016
isée
▁Index
▁arch
▁Toyota
▁YOUR
▁Mexican
▁gegenüber
▁cannabis
bis
vage
hall
fax
▁spoken
▁Zimmer
kauf
▁couleurs
▁NJ
▁Heritage
▁Pflege
luc
▁56
VP
▁cuvinte
▁Alliance
▁coco
▁leverage
auch
▁Cart
taux
east
▁decorating
tip
▁Communications
ACE
▁Consul
▁Swiss
inci
▁Fact
▁ajung
▁airline
▁kidney
▁Records
▁Olympic
▁dried
oivent
▁Adobe
▁powers
lande
▁relieve
ţine
▁gradually
mud
▁30,
▁plante
▁Hug
▁Focus
▁distinctive
▁Bab
tata
▁Nun
▁Eve
▁déc
▁Beitrag
▁devenit
driven
▁offerings
▁exc
encies
▁Neuro
scher
map
pending
▁courage
axe
▁Gesellschaft
▁ears
▁aider
▁Cast
fast
▁departe
▁oak
▁batch
▁Corporate
▁Ost
-14
▁Pie
▁ranking
clusion
▁costume
▁Knight
▁privat
▁Engineer
▁gens
physics
generating
directement
▁confidential
▁poet
▁monster
▁suppose
său
▁balls
▁substitute
▁simultaneously
▁specify
wald
▁collapse
dessus
▁vitr
▁recruitment
denken
▁candy
▁tourists
dimensional
conce
wechsel
▁passende
industrie
agne
▁warehouse
▁Jugend
▁Weise
▁Zone
▁licence
▁broker
▁Rolle
pton
▁preference
▁homeowners
▁Lum
▁Chairman
▁Pages
▁beam
▁coordinate
▁Tool
▁complexity
▁checks
▁Bedroom
minded
▁copiii
▁celebrating
zimmer
▁Imagine
▁decoration
team
▁împreună
▁publicly
▁centuries
▁Islands
▁ethnic
still
stieg
emia
tags
▁marche
▁migration
▁banner
▁macro
▁Edit
tran
ça
▁recycling
▁1,000
▁Quelle
▁Vel
▁Rit
▁Spaß
▁Corn
tracted
cited
▁tablets
▁Display
▁persoana
Term
▁Vancouver
▁Gäste
determining
▁populations
aison
▁surgical
tale
ivi
▁Zur
esprit
▁Edge
dach
phi
▁suc
▁scrie
▁Ausbildung
▁51
ologi
▁correction
▁Wald
▁additionally
▁proche
▁classical
▁bringen
▁(10
▁Mile
lace
▁premi
▁constitute
▁bitter
▁Inform
▁corporations
▁Lisa
▁obligat
Throughout
▁Rs
▁Hair
▁supplements
▁motorcycle
escent
▁investi
▁continuously
▁Essen
▁precision
▁deficit
▁wallet
▁Bürger
chir
9)
▁Programme
▁simplement
MD
▁rouge
usion
▁stove
▁prospective
▁corp
▁impacts
▁bride
0.0
hid
▁warrant
▁Ice
▁sensible
▁vreo
spekt
▁appreciation
▁automation
Luc
teaches
▁fold
deutsche
▁assisted
▁straightforward
▁mechanic
observ
▁Schau
▁Recently
kers
▁Soft
muni
▁lie
▁Fat
cream
▁snack
▁juin
▁competent
▁Drug
▁Row
▁needle
▁convey
▁voie
▁Hon
▁ebook
▁veteran
▁statistical
190
▁munca
▁venues
▁Viel
▁décor
▁répond
▁produsele
ruc
▁drops
▁autant
▁Fahrzeug
▁hills
ference
▁Glück
▁Pac
▁permettr
▁mouvement
établissement
▁Parc
▁solving
▁jail
▁junk
▁jeux
▁rôle
▁cache
▁Answer
wir
option
▁Tiger
▁Ble
Mitglied
▁partial
▁Mercedes
tire
MENT
▁transit
▁cineva
▁Andrea
▁boundaries
script
▁Medi
schreiben
▁lobby
▁defendant
▁sq
▁forgotten
stimmung
hus
RY
▁Anderson
▁Dental
ject
▁Nutzer
▁Portland
scription
▁angel
▁monument
▁număr
▁Lane
▁Bai
But
▁calculate
▁provoca
▁votes
RNA
though
spor
▁connaissance
▁Anwendung
▁Kate
lob
▁Conf
bung
ander
▁functioning
▁sponsored
rav
▁resistant
tră
▁costly
▁Mars
▁tir
▁writes
▁Greg
▁Question
▁corporation
▁lire
locked
8,
▁sagt
gaining
▁Pierre
verb
▁Barcelona
werte
▁disponible
▁urge
▁expecting
▁Girl
▁unlimited
watt
▁Möglichkeiten
▁schöne
rium
That
▁socio
▁Democrats
guten
▁Lou
ităţi
▁possibilité
▁adjustable
▁Salt
Thr
▁biseric
ieux
▁procur
▁credits
▁Netflix
doi
▁Jews
▁Ukraine
▁adevărat
▁Apply
▁coupons
▁Detroit
▁rue
anumite
ished
▁withdrawal
▁replacing
catching
▁climbing
▁Basic
▁inclus
scope
▁facem
▁plec
mäßig
▁tasty
▁tunnel
figured
gged
▁conditii
▁homework
volle
▁Gott
▁95
▁elect
▁blast
▁easiest
USE
concentr
orial
▁scroll
stead
▁hormone
▁starter
▁cald
▁wax
▁ridic
ously
maschine
licher
▁16,
▁hassle
semnat
▁pub
240
▁kits
▁Generation
▁merchant
▁Erd
▁café
hoff
▁WITH
▁gesch
▁Editor
▁treats
▁harsh
rome
▁Foreign
▁denied
▁Valentine
▁healthier
▁readily
nac
▁intake
▁puncte
erne
file
▁continually
door
▁imediat
▁accused
chy
▁wrapped
IES
▁terrace
mouth
▁defensive
▁Luci
▁significance
▁2007,
▁inclusion
▁rotation
hos
▁crea
üß
▁Install
▁dump
▁informations
▁Thi
▁85
dox
track
▁couples
▁Assembly
wagen
▁Hil
ières
▁Gabriel
▁patience
▁colored
▁separately
▁deployment
scape
▁Acum
▁länger
▁screens
▁prezenta
▁obicei
▁crisp
▁mechanisms
▁thirty
▁individually
▁internationally
lling
▁bureau
▁erfahren
TY
PF
wid
sell
▁Luke
▁Must
▁identical
▁Netherlands
▁investor
▁squad
▁21,
iko
▁departure
ega
uzi
▁lasa
bian
▁Madrid
▁Iowa
▁Yellow
conom
▁hint
NOW
dress
▁Stück
echt
rial
▁Initiative
▁magnificent
▁pipeline
▁08
▁écrit
KA
arile
▁unfortunately
dose
▁counts
deciding
WA
▁doresc
NY
olin
▁Urlaub
▁alătur
▁Vic
▁fier
EU
▁triple
▁compliment
▁vegetable
member
atiei
▁toxic
▁converted
▁Pink
▁fragment
presenting
▁garantie
▁31,
▁puisqu
aching
▁Shan
▁Affairs
üsse
▁CBD
▁quatre
▁horror
▁culoare
▁welcoming
▁headache
▁septembre
▁Tür
lateral
▁termin
▁Aid
second
▁Philip
berries
▁Slot
ка
▁consecutive
value
▁islands
▁posibilitatea
0.5
▁Dumpster
▁Gran
▁restricted
▁discussing
cock
Serie
▁crushing
RB
▁Gy
normal
DT
▁concurs
▁Beratung
▁handful
▁loading
▁WI
▁Fitness
▁RAM
▁Twi
adurch
▁obiectiv
BM
▁amendment
whi
▁Besonder
ALL
▁earning
▁nutrients
pru
▁offensive
▁shelves
▁încâ
▁execute
▁cauz
exist
▁Meter
there
▁réaliser
blog
▁résultats
baren
▁lang
▁mere
▁toti
DN
Hi
▁merg
▁Camera
▁parfum
CG
posed
▁proposals
▁incorrect
▁Denver
▁noapte
▁VPN
▁Oklahoma
horizon
▁villa
duce
Dienst
▁oversee
astr
brand
▁Safe
▁competing
▁subiect
▁équipe
▁Dress
▁Juni
▁repeated
2012
▁départ
immer
▁mondial
▁datelor
▁surgeon
▁demanding
▁concluded
țiile
marin
▁estim
▁Loan
sculpt
▁99
void
▁Empire
▁Brit
▁véhicule
▁dividend
▁refused
▁speaks
▁Morris
dict
▁funeral
▁Behandlung
▁Revolution
▁Sum
einigen
RES
▁vite
▁Captain
▁assurance
uga
▁conserv
▁therapeutic
▁Sweden
▁Lead
ément
▁53
▁fraction
▁magnet
assurer
▁Steuer
▁flori
▁charming
▁athletic
▁membri
▁Sep
ogue
▁familie
▁SW
▁diagnosed
RR
▁Fern
▁rational
▁talents
ziert
▁chemin
sheet
▁outer
▁Kap
▁HERE
▁uman
▁accompany
▁varieties
▁sensors
▁25%
▁tray
▁critique
▁puţin
▁Schüler
▁repar
▁overlook
▁surf
▁tasting
bog
▁Payment
▁Helen
▁Refer
application
lection
▁avril
▁Grace
▁kau
▁libraries
▁closest
▁coating
▁suicide
▁undergraduate
▁stitch
▁reset
▁Greece
▁Fred
▁18.
▁nuit
▁lying
▁cottage
bone
▁milieu
management
▁Freund
▁specially
veut
▁necesare
▁cert
articul
150
rounded
▁longue
▁Quel
Until
▁700
▁installations
▁boats
Fig
▁cocktail
▁rocks
meinen
entrepreneur
schwarz
▁diesel
▁villages
▁cups
▁stairs
▁Match
Taking
prin
▁penal
partner
wave
▁baie
LAN
fix
▁surveillance
▁Register
oara
▁Phoenix
aktuellen
▁livres
▁entities
▁Regard
▁Jazz
▁flame
▁independence
▁Adventure
▁assign
▁Adult
kehr
▁ordering
▁charts
▁Român
bauen
▁Floor
▁Meet
▁compromise
regarded
02.
▁granite
▁Judge
opti
liste
▁capacité
▁criticism
LES
▁Century
▁mobility
▁variation
▁Utah
▁seminar
▁experiments
midst
▁Psycho
▁choses
▁Karl
▁ruling
▁Voice
▁împotriv
▁mesaj
▁vrei
fan
parent
▁oraș
▁printable
▁diver
▁ochi
▁teenager
▁Death
▁manque
ască
▁prob
▁télé
cursul
pion
▁dedication
▁opr
führung
▁cognitive
soft
▁19,
▁24-
▁legitimate
▁comedy
▁violation
▁disposal
▁liegen
ко
▁martie
▁Vas
rash
▁hadn
▁connu
▁regelmäßig
▁Webseite
▁failing
explique
▁Player
vul
camp
▁erreicht
▁tags
▁headline
▁banc
▁Mayor
trop
AK
▁lighter
▁syndrome
▁Adrian
▁EUR
▁Missouri
▁Chan
topped
▁nationwide
▁6-
final
ttes
▁FO
▁legi
▁Hum
vita
▁Regen
▁confusion
▁valori
mill
did
pid
▁implications
▁Value
lângă
▁véritable
▁Stick
zol
▁ebenso
west
▁auszu
▁adorable
▁clarity
▁Wash
▁alien
usement
▁bones
▁Beau
▁Jet
▁visibility
impose
food
▁duce
▁Format
▁durability
▁Prim
▁mele
▁dürfen
▁Angebote
▁discharge
▁Justin
▁shame
▁heated
ères
human
4.5
▁lien
▁Alan
▁transmis
▁Bul
plu
acul
merk
▁altfel
deli
▁Cru
▁hommes
aurait
cca
▁Path
astronom
▁détail
▁blocked
iding
schä
▁30-
diction
▁pulling
▁Sample
▁renewable
▁Pinterest
▁Tages
▁shed
▁hart
▁serie
▁documentary
gebaut
▁Hause
share
▁inflation
▁gall
▁adjacent
jer
▁Universal
▁disabilities
▁proposition
Work
▁closure
▁separated
▁soda
▁elite
appro
▁acute
utton
▁facă
▁collector
▁unlock
▁Alpha
▁Used
▁applicants
▁înseamn
▁inclu
▁disclosure
▁Fahr
AST
▁vivre
»,
laud
▁soir
▁barrier
înd
▁ambition
asta
occupied
▁Gau
four
▁nap
iez
endra
gaben
▁Carol
▁Switzerland
▁Bond
▁crossing
▁Palace
NG
▁Budget
▁lid
bab
▁polish
▁herbs
▁dear
▁devrai
walk
▁humanity
▁tires
égal
▁bow
▁debris
▁keywords
irk
▁suspend
▁pourra
migran
thereby
▁Harris
ateurs
▁fal
alleged
noch
▁observation
▁București
▁SQL
▁Phase
▁adventures
▁Kol
▁professionnel
crit
LR
▁preview
▁highlighted
▁Stud
▁labour
MV
click
approche
tian
cité
▁Rain
typ
Usually
▁outlet
logging
▁Temperatur
▁Scottish
iga
▁glory
▁Rom
zeug
establishing
▁imaging
▁Beauty
igan
après
Adresse
cliff
▁unnecessary
▁slim
dir
▁leisure
▁principale
▁Viele
▁2007.
Hopefully
cola
▁Planet
▁orientation
▁angry
MIT
▁Kenya
▁bless
▁Fill
▁compar
▁curtain
ţei
▁Az
▁Rang
▁dominant
race
▁Target
▁manually
objet
thrown
NF
durant
rect
▁Größe
VM
▁aprilie
▁Welche
▁verde
▁Portugal
▁algorithm
ăț
▁Grey
▁cleaned
▁modes
▁relaxation
mbr
étique
Her
▁beta
▁nobody
▁aplic
present
emis
éléments
▁lately
fab
▁aluminiu
▁vest
▁statue
▁publice
▁merchandise
▁relat
git
▁interne
▁Tokyo
chal
contacted
▁tras
▁Clinic
▁unbe
▁dumneavoastra
float
isson
▁vessel
attempting
▁doute
▁Leadership
▁sustain
▁textile
auer
▁90%
garten
▁adauga
▁Kil
▁troops
▁pale
host
▁cry
▁Alb
▁Brad
▁bicycle
▁24/7
▁с
▁stimul
gler
▁notwendig
▁cousin
cheie
hay
▁rezolv
▁THIS
ordre
iști
▁conclude
▁Lage
▁Entertainment
▁valued
ktion
▁priorities
▁1986
▁fatal
▁accurately
▁1987
▁folk
7)
führer
▁knot
haltung
▁Charlie
âge
▁threshold
▁assault
▁meist
bine
surprisingly
▁Protect
▁Hack
▁Quant
▁Cet
▁convinced
▁muncă
dging
▁Millionen
zahlung
▁anticipated
▁brass
KO
▁culori
▁Aero
▁intermediu
▁Philippines
▁jury
▁Funktion
▁probe
TL
1.0
ELL
She
▁Blood
▁Dean
▁scène
volu
▁Epi
▁séjour
▁Smartphone
▁fired
beat
▁pockets
▁serviciu
▁affairs
▁Ry
▁Stadium
▁snacks
▁efectu
▁Richtung
▁dresses
▁Medien
writer
changing
▁supportive
▁beneath
paid
▁customize
▁Ferr
reaches
arma
ción
▁elderly
▁modification
▁perfection
▁Allow
▁belonging
▁compound
▁Results
▁astăzi
▁Liber
jor
▁Nin
▁lumina
▁130
▁Platform
▁SMS
▁medic
hör
▁Kas
▁tomato
▁logiciel
php
▁premises
▁Communication
▁reprezintă
▁Partners
▁RV
▁pants
▁envie
▁commerce
▁tears
▁cooler
strand
▁Gil
▁référence
▁electronics
exposition
▁Caribbean
▁compelling
luci
▁Brooklyn
▁Thai
dler
▁supra
centered
▁metro
▁03
▁enrich
▁adevarat
5000
▁bell
▁sine
▁appealing
clam
▁vorhanden
▁pickup
▁Alaska
▁Nacht
borough
▁Blanc
▁apare
▁Works
mettent
atter
terra
▁Bit
RL
▁Wander
▁Hawk
▁Probleme
regel
hne
fass
▁Andy
▁befinde
boo
▁connectivity
▁spielt
zweiten
ţilor
▁confi
▁schlecht
▁Beginn
▁floating
nimmt
▁arbeiten
pillar
sterreich
▁Schule
▁durée
▁honestly
▁acel
▁Prozess
Min
enii
DAY
▁Blo
▁bolt
sicher
▁17,
▁anchor
▁consistency
▁relatives
▁lac
105
▁Craig
▁mandate
▁bedeutet
▁Soviet
▁arguments
▁Gebäude
▁Parliament
▁Kha
nica
▁Amazing
gründe
▁Ott
Exp
▁ianuarie
riot
▁futur
▁Honda
!!!!
▁citit
▁22,
țional
▁lovers
▁Current
▁drone
▁promising
devoted
▁Born
▁viitor
▁ritual
▁Guard
09.
▁Py
▁finds
▁boli
▁Mitglieder
ogni
▁stones
rox
▁dock
▁onion
▁classified
big
RG
influenced
▁sudden
▁ample
án
▁ornament
datele
▁Dad
BER
gerecht
kett
▁Antonio
Nu
dium
CAD
▁bundle
▁Vari
▁thrive
▁Seminar
wire
▁contributing
▁Bour
▁dori
▁packing
▁colleges
▁garbage
▁vector
▁suggestion
borne
▁Listen
▁Prix
viennent
insbesondere
▁fonctionne
▁mainstream
▁merci
oko
▁Commerce
▁droits
▁muzica
▁profesor
▁epic
▁intuitive
▁aggregate
▁vaccine
▁dank
▁situ
▁Cand
▁Ganz
▁Crystal
▁discretion
mug
▁anzu
▁cement
▁priest
▁rejected
▁Summit
▁Sara
▁palette
▁continuare
uge
ryl
▁Solid
▁meilleure
▁Tennessee
rail
▁attributes
▁vessels
cylinder
▁parfait
abb
▁Julie
▁pièces
▁proiecte
médi
▁décembre
Per
1/
regulated
▁Dy
▁23,
beck
tură
▁Chiar
▁isolated
▁kennen
Du
reflected
▁belong
▁welcomed
▁Rate
prestigious
▁1/4
▁distinction
▁boring
▁booked
▁citizen
▁comprises
▁aufge
GL
▁nearest
▁printr
▁département
▁planner
▁Rai
▁Broad
▁pastor
▁reservation
▁decembrie
▁suficient
geld
training
deshalb
▁chaud
Cor
▁Grade
▁faţă
story
gericht
▁Got
particulièrement
▁bump
▁fatigue
Activ
▁numéro
▁stranger
▁Skin
add
Ainsi
▁assists
▁zusätzlich
▁vede
RON
▁seemingly
▁NU
geb
▁Release
▁throwing
▁Alabama
▁Something
▁Cuba
▁Verbindung
▁Cir
your
-13
▁Delta
▁Twin
▁governance
▁groom
▁conception
▁governor
▁Spar
▁coastal
▁Seven
▁inclusive
cili
▁Ridge
teller
▁Kin
leiter
stern
change
▁presidential
▁composer
Stu
▁Frankfurt
prä
▁Ideal
▁linear
▁bloom
▁grades
mettant
▁finishes
holz
▁dirty
▁Roh
▁Praxis
tempo
▁attempted
▁primar
▁pomp
▁tolle
▁adres
▁Between
▁ruin
▁matériel
MER
Nevertheless
▁corruption
spire
▁mou
ROM
▁underground
▁relativ
waited
▁speeds
▁adjusted
▁Flat
UND
▁individuelle
▁anybody
EO
->
▁Spend
aktion
édit
▁quest
rind
▁mediu
▁barriers
▁répondre
▁novembre
▁champ
saw
▁fed
▁favorites
▁shield
▁Wide
▁problema
▁Asta
▁refreshing
hey
obtaining
▁parler
▁Cele
frage
écran
▁cleared
zehn
parmi
änder
▁Defense
tatea
▁reasonably
▁Idee
nehm
technologie
atura
▁slope
Hence
▁40%
▁jewe
▁queries
▁$8
▁Parker
▁publique
quant
issue
▁Cleveland
4,000
IDE
▁Barbara
udge
corn
veți
▁proteins
▁trăi
▁mijloc
logie
▁Walter
heißt
search
▁hochwertige
▁încerc
▁administrator
tension
▁homemade
▁$20
▁leben
netz
▁intensity
▁clever
▁installer
▁Wand
meister
ziel
▁architect
▁crede
▁Sleep
▁demonstr
cake
▁Cheap
pool
▁gadget
▁Anbieter
▁Jonathan
ül
▁Harvard
▁1985
HP
▁afara
▁halten
▁Technik
▁dressed
weis
▁donated
also
▁EN
▁imprim
▁onions
Par
▁donate
▁mice
referring
▁restored
▁amateur
▁Switch
appel
▁idéal
▁wheat
▁lime
REA
riti
ţiile
▁machinery
UNE
▁Cont
▁attendees
▁aparat
freundlich
▁zilnic
▁spark
▁Gast
▁Issue
▁scam
▁bonds
owner
▁empfehlen
elia
cic
▁honored
▁castle
avand
rough
▁Address
angle
leton
▁locked
▁consolid
▁voucher
ației
wachsen
▁magazines
▁Schools
▁voices
▁Dry
▁tricks
schließlich
▁loyalty
risk
▁Vers
chester
▁decorated
▁copiilor
riz
03.
▁Hur
▁archive
▁Continue
▁Nähe
jit
gekommen
▁conjunction
combining
▁Unterstützung
oza
▁sketch
▁arată
▁Mining
uous
▁devis
Almost
Hu
▁Om
MF
liz
▁fails
▁comparable
▁vein
▁Vis
▁viagra
▁farming
▁Late
geschrieben
hrew
▁melt
lager
halte
▁Hotels
▁facebook
▁défi
shore
▁membrane
▁sixth
api
▁Owner
▁("
▁$50
▁protective
/2
▁Girls
Gri
▁nouă
▁infections
rân
▁Geb
▁Conseil
▁imagini
▁promotions
▁enforce
▁applicant
▁Apart
▁progression
▁careers
▁litigation
▁Menge
▁Contract
▁Kel
▁réserve
▁Cold
▁larg
▁microwave
▁Whit
▁Technologies
OU
itudine
▁handles
▁proceedings
▁prizes
▁unterstützen
▁piele
▁profound
schließen
▁trafic
▁Nar
▁Gesamt
▁bugs
▁Amy
▁eastern
nice
▁Besuch
▁synth
▁clasa
Book
▁ribbon
▁neues
ZE
▁peers
leistung
▁internship
count
nam
▁12-
acked
gonna
▁Dinge
Time
▁twelve
eye
▁avantaj
▁Glas
aucune
▁boil
▁Gray
adapt
occ
▁prieten
▁trai
▁Scal
▁conscious
▁charter
KS
▁Barr
▁summit
▁inflammation
tungs
ovic
▁conduit
▁Alice
▁veterans
Während
▁maximal
▁Hawaii
▁Pine
acelasi
hyp
sensitivity
pour
ре
▁Kentucky
▁badge
affecting
▁chairman
▁München
▁Hersteller
▁urmat
tels
▁FM
▁Basis
▁erklärt
▁changer
tischen
▁brave
▁siguranta
▁partnerships
ților
▁breathe
rink
▁footage
▁transformed
▁prep
▁upset
▁Native
▁Prima
▁jersey
230
▁lucrurile
▁divine
▁Pit
RIS
▁Cultural
▁exotic
▁tastes
▁bargain
▁optimize
▁électrique
deuxième
▁Gary
▁projection
▁sliding
club
association
▁LG
▁capsule
▁politicians
▁thumb
▁globally
positioned
▁Hamilton
arme
▁efectuat
zip
▁welfare
Leistung
▁Bac
▁fizic
OK
▁limba
▁wardrobe
▁offline
▁fortune
▁dialog
▁dramatically
▁NYC
▁Rem
▁bronze
▁pulse
Fortunately
▁glue
▁Expo
▁profitable
▁distributor
abilité
▁lyrics
▁mesh
▁organizational
▁vanilla
▁foc
▁1984
▁créé
▁servi
▁underneath
▁surveys
▁genes
▁limite
oder
▁mandatory
▁hospitality
▁bikes
▁Quote
glu
▁activitatea
preventing
▁Kh
économie
▁visite
▁spectacle
▁tract
▁quant
▁evolu
▁invata
▁homo
▁Users
introducing
hibi
▁Instrument
▁ép
▁Raj
▁executives
atoire
▁erforderlich
male
umble
erson
▁Treatment
▁Representative
▁corners
▁Petit
8)
▁Walker
▁Stir
/19
▁Stelle
ără
osse
2000
▁McG
DV
▁Firm
▁packet
Toate
▁institutional
rug
DG
fine
bringen
▁Horse
▁premiere
▁Că
acheter
▁Afghanistan
▁Prop
ühr
▁braucht
▁sunny
▁Sach
▁volumes
tinut
▁Sho
▁winds
▁Mall
ledge
▁sciences
plication
VR
destin
▁früh
▁tongue
▁Jennifer
▁bracket
▁episodes
breite
▁stoc
ilia
▁Gulf
▁transparency
Industrie
▁viewers
AIN
▁Registration
/4
▁fera
▁06
▁einzu
enburg
▁eff
▁Stage
▁Cour
indu
▁Tools
IST
grund
seitig
pai
▁waist
▁Therapy
▁nomination
▁seama
▁analyse
▁emerge
▁adjustment
▁stroll
▁Beyond
▁legally
▁gauge
▁26,
Tex
economic
stoffe
Wir
ffen
▁acoperi
▁finale
▁theoretical
1.3
anim
▁separation
agence
▁réalisé
sprech
▁embedded
▁defence
éni
▁Norman
▁insgesamt
▁reminde
▁timeline
▁symbols
▁booth
▁Window
▁Titan
înt
▁langa
isant
hart
broader
▁stays
dur
▁Actually
works
▁réussi
▁performant
▁banana
▁baked
▁Parlament
▁Legend
toata
platte
▁Mou
HL
▁(8
▁accepting
▁Senator
▁consciousness
▁conducting
▁panic
▁FDA
▁(7
tool
▁Shipping
▁hop
▁conferences
▁pork
▁spam
▁interesant
▁Tagen
sig
étro
▁legendary
▁Alternative
iana
▁responsable
▁Mihai
▁decreased
▁organised
▁Lamp
litz
ohn
▁moteur
III
▁Montag
▁naturel
▁Hus
▁Schl
ains
▁dying
▁HIV
],
alität
▁institute
mix
▁Regulation
▁pagina
▁Awesome
▁Official
▁Minute
▁dairy
▁carti
isk
▁thrilled
▁german
▁frustration
▁forums
command
▁router
▁Lösung
white
▁synthetic
▁retrouver
alle
daran
▁wahr
▁paths
▁unver
▁Environment
▁médecin
crypt
▁pursuit
flat
bron
▁Specialist
▁Vent
Gen
▁attraction
▁piese
CHE
fähig
▁28,
defender
▁stupid
enfin
▁composite
fragen
Part
may
▁Bucureşti
▁février
RED
▁makers
▁guns
▁pasta
STR
▁worthy
Poate
▁101
▁souhaitez
GN
drive
▁aveti
▁eventual
▁américain
▁Mine
▁sunset
▁Choice
▁offset
APP
▁suchen
▁aduc
▁Unternehmens
▁//
▁astept
▁Birthday
▁barn
apport
▁collar
▁gefunden
▁Hai
▁Soul
ismus
letzt
▁maker
▁executed
▁Forschung
▁täglich
▁tailor
▁headquarters
▁physicians
▁Scout
folgen
▁cycling
mindestens
▁joli
▁classification
▁Führung
▁peau
INT
▁Garage
teile
util
▁petrec
▁Nevada
▁laisser
▁territoire
▁fichier
▁Formula
scopul
▁Tee
▁Monte
▁pumpkin
▁picnic
▁occupation
▁numérique
linie
▁masina
▁Prä
▁dezvoltare
▁vient
▁ranks
▁Bruce
▁seara
▁hungry
▁resolved
paired
▁Congratulations
▁religi
sätze
▁Eat
▁dense
▁slice
▁mulți
▁vorbe
▁terminate
worm
ignon
▁Howard
▁toddler
▁waters
▁graduates
▁fundraising
06.
▁scent
▁CPU
▁Kid
▁Years
▁Oktober
filled
▁Laser
▁tut
ively
▁WiFi
standen
▁publié
▁explaining
trieb
▁Rapid
▁unterstützt
▁Sonnen
▁lenses
▁pressing
▁respected
adapted
Don
▁mun
MAR
▁seam
chev
▁Sozial
▁Arabia
▁equation
▁elevi
▁piata
JA
▁wholesale
▁faithful
legal
▁Brexit
vention
▁adhere
▁Associate
▁decorations
▁crois
buck
▁smartphones
Regardless
center
eiß
▁emotion
▁Gespräch
▁Avi
▁loft
▁Wissen
▁orchestra
▁gehören
▁Reich
▁abandoned
▁Lanka
pala
▁Stell
logged
terie
▁educa
1).
▁disponibil
IND
▁Pont
▁téléphone
▁rope
ève
▁Trainer
▁présence
▁Oscar
▁VR
▁Besucher
▁disponibles
▁gelten
▁ports
Invest
ésormais
schauen
▁Command
▁alternate
citation
évolution
▁Maine
pflege
2011
▁Ground
▁ghost
lebt
▁scenarios
▁mall
▁Kings
▁15%
▁Paint
FD
ugg
▁Leon
▁grows
▁pharmacy
▁situat
20,000
▁10,000
▁membre
▁facilement
▁Analytics
▁Marvel
▁survived
▁conviction
▁Produktion
▁professionally
▁contributor
▁Kurs
▁humor
▁cinci
▁Different
▁Verarbeitung
▁inexpensive
▁sortie
▁thankful
▁vacances
▁vergangen
▁wings
▁nano
▁touches
▁Notice
▁reprezinta
▁rewarding
▁Kurz
▁mega
▁secrets
▁vorher
▁crescut
▁coordination
▁dissertation
▁header
existent
thal
▁translate
vertrag
GU
▁Arthur
wahl
▁octobre
▁bother
▁pencil
▁Dyna
▁complimentary
écoute
PB
▁independently
▁targeting
fought
mental
▁Veranstaltung
▁tatsächlich
▁Features
▁1920
▁Domain
▁rally
▁iunie
▁fabrics
▁mint
▁antioxidant
hut
EPA
▁rigid
▁evit
▁personnage
▁garanti
▁Hä
▁Days
boarding
jemand
▁Pos
▁wool
▁boom
▁wichtige
▁emerged
▁smoothly
▁Interview
gemäß
▁suivi
▁missions
▁Kreis
century
▁tuned
isieren
▁Branch
▁Russell
▁**
▁Lehr
▁perspectives
▁handed
▁apporte
unta
▁contemplat
riel
▁freely
▁loyal
▁evolved
▁Cafe
▁assignments
▁Cream
▁Build
▁exams
▁graduation
▁Dining
inne
▁propriu
▁accordingly
▁seniors
▁sisters
formerly
▁fleur
▁alten
▁Gefühl
▁freeze
▁structured
▁reserved
stellt
▁foto
linger
▁profiter
▁trup
▁Hunter
▁widespread
entretien
▁Truck
Can
péri
▁>>
▁trains
▁faca
▁Patienten
▁scor
▁perceived
setzung
▁Robin
▁geboren
lons
inţa
glob
subsequently
▁vet
▁Holland
▁Clinical
▁uncertainty
hohen
uza
▁kleiner
▁substances
ados
wheel
▁cone
▁castig
▁Conditions
minus
▁permits
fond
▁reactions
▁Mario
▁materiale
AH
▁juillet
▁juridic
▁dropping
expérience
▁depot
▁plea
dezvoltarea
▁Independent
▁Homes
▁crust
▁pillow
kreis
▁boiler
latin
▁stet
GH
▁absent
▁Directors
zwischen
▁comprendre
▁25,
▁pharmaceutical
▁placeholder
KI
▁români
▁Dollar
▁Operations
▁Dublin
▁drawings
▁respir
▁haul
Obviously
▁Beat
▁jeans
▁Masters
▁bits
poți
▁asigur
▁intampla
▁marc
......
▁districts
cru
nav
huile
▁limitation
boat
IRE
Unis
dated
▁consultants
▁Josh
tanz
launching
▁browsing
▁incerc
▁27,
не
wig
▁spar
▁token
▁09
spa
ometer
▁riders
▁Drop
RN
▁pairs
▁psychology
▁Douglas
▁verwenden
▁(9
▁Rental
▁délai
▁sooner
▁bankruptcy
04.
abend
çon
▁Ple
fug
▁Wohnung
▁Preise
▁Kay
▁notify
▁Brain
▁optical
▁modifications
▁repos
▁worksheet
continu
▁assumed
varying
feier
▁Freedom
▁Inhalte
▁observations
▁Gruppe
▁Cyber
hort
▁langue
führen
ganze
▁forte
▁Stefan
▁Jetzt
mehr
trip
▁poem
▁practitioners
▁connector
ECT
▁inseamna
addressing
▁beliebt
▁Mama
▁fade
messen
▁Visa
▁Meta
lene
▁remembered
/3
apte
▁uncomfortable
▁romance
▁réalis
▁Vincent
▁ABC
▁handicap
▁Shin
▁Hunde
▁Ach
▁Questions
▁particles
usch
▁SUV
▁Tous
▁empower
▁Yi
▁LinkedIn
▁Profile
▁surround
▁wh
▁Weiter
▁Weight
▁creatures
Especially
▁repede
▁albums
▁compatibil
▁Interesse
abili
▁roast
▁unii
▁Glad
▁enthusiasm
▁whisk
▁freezer
▁stolen
▁neighbour
▁sake
▁Effect
▁fighter
▁tranquil
▁organizer
pixel
▁Guest
▁Philipp
kunft
▁Meer
▁inviting
gänge
▁Position
giving
▁marble
▁neg
▁Haar
Ein
▁buses
▁Lodge
soare
▁Barn
▁captain
▁Fix
ulate
ență
▁finances
▁VIP
▁Adams
▁spécialisé
▁fortunate
ility
▁democracy
shu
▁consiste
▁tort
▁branding
▁porch
UNI
▁placut
▁coupled
▁ministre
▁minerals
▁safer
▁outlets
▁caution
▁lightly
▁utilizator
▁Pala
▁doll
(1)
chol
▁Left
▁roulant
▁propune
▁Cred
▁negotiations
amba
▁grasp
▁Amsterdam
▁Zweck
▁conven
▁organizing
section
▁endeavor
▁basics
jud
▁yarn
▁shout
fällt
▁dragoste
▁Rein
Cal
▁deaths
▁24,
▁măr
server
▁explic
▁sufer
▁lucrări
▁Disease
▁prescribed
prozess
▁dessin
▁refuge
▁cope
pole
▁vacant
▁sezon
▁Carbon
▁goût
Ste
▁surroundings
definite
▁adaptation
cteur
System
▁Burg
▁retention
examen
▁adjustments
nies
▁RSS
▁Umwelt
▁strengths
loom
▁pics
phase
▁Poland
▁practicing
monetary
▁embodiment
▁jocuri
▁impreuna
▁Lyon
keeping
▁Starting
▁începe
▁clay
bildung
Technologie
toxic
▁gasit
rott
brook
▁wann
▁lined
▁Chelsea
▁Orlando
▁Otherwise
▁debit
▁entsprechend
nism
issen
▁rendez
▁processus
mbi
▁Graduate
▁cozy
▁Freunde
▁teme
▁bias
102
terrorism
threatening
ни
▁Sonntag
▁efect
▁prayers
▁backpack
?)
▁searches
ouverture
▁sustained
hawk
messe
▁prototype
▁stră
▁Neo
▁29,
izo
▁Anton
SIS
pendant
▁passive
▁Aaron
▁Karen
▁Bildung
ario
▁regulator
gruppe
stepped
▁interventions
▁rounds
▁Khan
▁railway
▁souvenir
▁Plans
aille
▁billing
▁Spiele
▁supermarket
▁flows
▁PayPal
▁tribe
anni
▁rides
▁Orleans
▁evaluated
founder
▁Feld
▁altele
▁thermo
ugh
▁adus
▁Taiwan
▁clause
oxi
alcool
▁Noi
rub
▁dosar
▁Nelson
fassung
▁Kill
▁Standards
▁upward
▁Coloring
Designed
▁Nou
▁borrow
▁Poll
▁antibiotic
▁fabrication
quo
▁crimes
▁nahe
▁aplicat
OST
▁Beijing
fight
▁lodge
dreh
▁harness
▁noiembrie
ounded
▁Imp
▁nächste
funktion
exploitation
▁Ready
▁Plate
▁octombrie
▁considerat
▁Xbox
mind
▁Lind
runde
mination
▁memori
▁cere
barkeit
▁găsi
2.1
▁Finding
▁static
court
▁Gem
▁pièce
▁reel
▁manuscript
▁complications
▁controlling
▁favour
▁advancement
▁Radi
▁faites
▁ordin
sorted
▁1982
▁brutal
▁Guy
▁accomplishment
▁wer
▁withdraw
abilitate
▁NBA
▁Benefit
▁divide
induced
▁văzut
▁peel
▁joints
▁enthalten
▁spy
▁occasional
warm
ême
▁Betriebs
▁Ioan
▁balloon
▁leap
pelled
▁realise
▁Retail
▁Farben
▁Kennedy
▁Firma
▁tineri
tub
PORT
▁stiff
▁notable
tler
▁utile
▁jouer
▁Primary
▁retailer
▁jederzeit
▁amend
▁sagte
atch
ution
once
ended
▁literary
▁wrist
vii
scriere
▁compassion
▁Milan
▁Dach
▁problèmes
▁Pré
▁Feder
Dr
Spr
▁né
François
▁Shu
▁poison
zier
▁attain
▁switching
▁vibration
▁Tablet
▁Lern
offrir
123
cheapest
▁numărul
break
cyto
▁Mississippi
▁dragon
fir
▁fête
▁Wait
buy
având
▁Scar
▁Hund
bug
▁classique
▁tenant
▁Walt
▁timber
inscription
BD
▁Commissioner
▁casinos
▁prochain
▁rustic
▁Kent
▁Deci
ли
▁crossed
▁delightful
▁metres
▁scandal
▁activitate
▁nimeni
ease
▁revenues
▁partially
AE
nique
▁fixtures
▁pupils
Lib
analyse
▁Oracle
troph
▁detected
▁servant
▁badly
comparing
abs
▁fotografi
▁Million
▁Gordon
▁Smok
▁Essay
eptic
▁Transportation
/2019
▁alignment
▁laut
stände
▁concerts
▁weekends
▁obstacles
wür
▁Fisher
▁supervisor
▁traders
▁scary
▁Grove
▁expose
▁enemies
▁Lux
▁Berufs
▁Sheet
▁Natürlich
▁examined
pursuing
▁pools
▁Thompson
▁SAP
claiming
buried
assurance
▁sandwich
uber
▁laisse
peak
spring
▁august
▁benötigt
▁achievements
coala
▁scr
gesagt
▁envelope
▁mapping
▁Suche
first
▁Quin
räu
▁răs
chemical
dad
formation
▁cushion
▁Maß
07.
▁perioadă
▁Wunsch
▁joi
▁$25
▁uploaded
▁hobby
▁septembrie
▁Dimension
▁domeniu
▁Tourism
▁fais
aches
neck
▁Chip
▁Tisch
▁Pai
▁Butter
▁altor
cultural
▁bases
▁Christopher
Kindle
▁bathrooms
▁civilian
▁Architecture
heiten
otte
ри
wash
▁evenimente
lade
▁ermöglicht
Port
▁Horn
▁Housing
▁Profit
▁stressed
▁70%
laying
▁specialize
▁Published
corp
▁revision
▁sail
courtesy
tax
▁perfekt
▁Risk
▁chaleur
ych
▁spine
▁holders
▁Speaking
▁Bernard
incarc
shalb
Potrivit
arising
▁kingdom
▁potato
▁promoted
▁judges
▁naturelle
▁Kindern
schicht
▁Drag
atta
soient
INS
▁legislative
▁teens
▁Fotos
▁illustrations
möglichkeiten
Votre
▁tarif
cli
▁landlord
cine
▁bot
enhancing
▁März
▁succès
▁disclose
▁Geräte
▁Magn
dessous
▁miracle
▁travailler
▁herb
-01
litre
▁tău
ACC
▁diminu
itzer
▁personenbezogen
▁Pure
▁influences
ană
▁proposer
▁longest
euses
/1
hafte
▁Dich
▁candle
ouche
installation
▁Includes
▁entfernt
traf
▁None
▁produc
held
graphic
▁demographic
ingham
schul
▁sneak
laub
▁thickness
▁killer
▁entsprechende
▁theft
▁Jerusalem
Adapt
▁updating
tete
▁warming
anlage
▁lenders
mobile
▁Package
▁Volume
---
▁Others
content
tement
bildet
▁washer
▁freelance
▁fein
▁catering
▁warmth
▁Month
▁Federation
▁editorial
▁Shopping
▁efort
▁damp
▁declined
▁1978
6,000
location
▁blogger
▁goodness
▁Purchase
▁suspended
▁assessed
rada
▁Lac
▁angeboten
▁Wetter
ores
▁fourni
▁retire
▁Baptist
▁Saison
Bar
▁dossier
brow
▁Kaffee
-25
▁festivals
▁sellers
Ü
▁publisher
▁Designs
▁putut
▁Built
▁recreational
▁european
▁binary
▁Nieder
taking
▁Lots
▁recognised
ssant
ITE
oom
▁Kre
▁pipes
▁hinge
▁enterprises
▁texts
Organiz
▁suivre
noc
fair
▁darkness
▁Whi
natural
Bas
▁tribute
▁Naţional
hara
▁catégorie
▁Schedule
▁lernen
▁Plastic
▁giveaway
▁Ideen
▁circa
▁lice
▁Meinung
▁beside
▁vazut
strom
boro
▁Soon
dozens
▁Arena
▁viața
▁Impact
current
FM
▁coil
gold
▁spate
1.4
solution
▁Wayne
▁queen
illion
greifen
▁Bil
rote
END
äl
▁reçu
flower
▁draws
plant
2010
▁oper
▁conserve
▁sprinkle
mode
▁lifting
▁Institution
Când
Aus
▁fears
▁appointments
oarele
▁duck
▁stadium
▁vezi
▁lap
▁proceeds
geschlossen
▁tren
VS
▁vais
ținut
▁Concert
▁planting
▁honour
▁gras
woo
▁Hero
▁stimulate
▁überhaupt
▁bounce
oodle
▁packs
▁Poker
▁acea
▁parish
-24
▁iTunes
▁lumière
third
▁dynamics
Unless
▁immense
▁Sec
lois
époque
NB
written
▁logement
submitting
▁Quand
▁foi
▁catalogue
nova
▁prezentat
▁tart
те
hack
▁Politic
▁18,
▁ignored
▁spoon
▁Joy
▁reside
.99
lytic
▁bogat
▁nurses
▁funcţi
▁produselor
▁Associates
Est
▁peanut
▁résultat
08.
▁Astro
▁personnelle
320
▁Grab
éco
▁clasic
offre
▁idee
▁cheat
▁Flug
▁1500
▁kurze
With
▁Half
▁disciplines
sorption
▁greutate
mä
▁Literatur
3/
4.0
▁déco
▁Fuß
▁Deutsche
▁abundance
▁Luther
▁nutritional
▁Jude
AY
▁chore
▁Kro
▁alin
lösung
▁geworden
▁sociaux
▁Spark
▁phenomenon
ICA
▁Ran
▁Schwarz
▁1983
ет
möglich
vocation
▁Organic
Oh
▁blockchain
▁Bă
▁Bass
enie
▁rêve
▁Rap
▁democratic
▁Chart
▁Voi
process
▁preach
tient
▁Train
▁Reihe
help
1.6
▁cazuri
▁chap
aktiv
▁2006.
iene
▁BBQ
dauer
2).
▁Monat
Generally
▁bracelet
▁cartoon
▁pui
temp
▁Particip
▁dumneavoastră
▁Gin
iunile
reise
▁einzige
ANCE
▁humble
claim
LV
▁confiance
▁Trading
▁Fabric
▁Duke
spieler
▁reject
▁crise
▁borders
▁Vehicle
zeiten
enrolled
venue
▁forests
vascular
▁phrases
▁receptor
schied
▁soirée
▁partener
▁Jobs
▁segments
▁violate
▁viable
▁encountered
▁travelers
▁împ
▁convince
▁mailing
▁Zahn
attend
▁eBay
▁Emergency
wirtschaft
▁scholars
▁considerably
▁combo
hiver
▁mysterious
▁Degree
▁fate
▁transplant
▁samedi
unit
▁moyenne
▁Liverpool
▁Champions
zzle
▁arena
▁Pipe
▁waterproof
▁eternal
Whenever
▁Hop
▁Betrieb
gne
▁spe
▁Corner
▁devenir
ambiance
▁Graham
▁desires
▁Applications
▁genutzt
tek
▁Career
▁staple
▁Dodge
▁strictly
▁Gruppen
▁Finanz
▁sporting
▁Wieder
anny
▁bucura
▁Pest
▁circles
▁richtige
▁cycles
static
lasting
▁calcium
▁digest
Enfin
▁stressful
▁schemes
▁décision
▁comercial
işti
▁Comic
▁extensions
▁Sieg
▁pine
ieß
▁Images
▁Mensch
Pap
▁crops
▁sheep
▁istoric
▁Assessment
▁mounting
wirken
▁augment
▁picioare
organisme
▁Monitor
▁celles
▁Maison
notified
▁chew
▁bleu
dow
▁Grav
▁curtains
▁Campus
▁controversial
▁soutien
▁Dell
▁instrumental
▁Nan
▁prom
▁spatial
Similarly
▁Gala
ultimul
▁Vom
▁Foot
bike
▁acids
entend
ivă
▁Weitere
▁vitamins
▁enhancement
▁Cruise
assemble
▁spécifique
affaires
▁indispensable
▁logistics
▁manche
▁dealt
▁favorable
▁unwanted
▁handmade
▁Regi
safe
persoanele
▁destinat
▁Maxi
▁salmon
wag
210
▁warned
läuft
agging
▁responsabil
▁presse
▁amis
▁rolls
control
▁Manufacturer
hnen
▁buget
OW
etro
▁communauté
unci
▁Chine
combines
▁learners
STE
ckel
Service
▁veröffentlicht
besides
getragen
▁opponent
▁volum
▁confusing
invasive
▁conseils
▁vibe
View
oară
Link
▁holy
▁crema
▁Michelle
▁Wien
▁undertake
▁Photograph
humain
▁Hang
designed
▁analyses
▁compose
▁substantially
▁marking
▁campagne
▁$15
pharma
▁playoff
▁momentum
Temp
▁vinegar
▁descriptions
christ
wore
ITY
stehen
▁insulation
grav
2.2
▁Explore
▁dye
stair
artisan
▁zoom
▁turkey
▁locksmith
▁sewing
▁modeling
lied
adel
▁Going
WH
▁deserves
▁arriving
OFF
torului
ucked
▁approached
▁élevé
▁quotidien
▁derzeit
nutzt
science
▁Emma
▁builds
▁Logo
▁clouds
inflammatory
țiuni
▁Cisco
▁würden
▁Shaw
▁Ell
avance
anglais
weil
▁singura
ACK
likewise
ographie
liegen
▁Crow
▁unic
▁Ale
▁păstr
▁informal
650
Benz
▁antenna
▁pagini
▁lansat
▁Fans
taine
JO
▁Tips
cir
nou
▁planted
▁steering
▁Waren
▁clearance
▁Moscow
▁Faith
▁Pizza
▁Tank
QUE
▁studii
éné
▁guerre
▁celebr
▁Factory
▁Browse
▁Request
▁taxpayer
▁assert
unternehmen
▁Ergebnis
▁Antwort
▁Photography
▁plă
IME
▁prochaine
ajouter
▁buffet
▁pixels
▁pledge
▁Inhalt
▁chase
Flow
▁melodi
▁Abu
▁1979
▁Photos
▁qualifications
▁zis
IAL
▁lender
▁indiferent
▁behaviors
▁flowing
▁zweite
abl
Schw
opi
ggi
▁depart
▁garde
▁tuition
fälle
▁determina
▁spice
▁petites
kot
▁intersection
hak
▁autumn
▁verbunden
▁ferme
PN
▁insurer
arten
▁Turkish
▁shoulders
=>
▁Nike
uire
▁Chile
jon
▁fragrance
▁bean
ips
assuming
liens
tocmai
▁60%
ipped
DIS
▁predicted
▁Picture
Bahn
104
tended
▁approve
▁magasin
▁mindset
rase
grand
▁Principal
▁informații
▁legătur
▁Farb
▁Dieu
▁alliance
weiligen
▁Câ
▁counseling
▁traveled
▁translated
▁carne
aked
▁LCD
▁Folge
▁Erfahrungen
▁1981
▁răspuns
itori
▁elementary
▁vorbei
▁cargo
disciplinary
WR
▁counterpart
family
▁viață
▁Definition
▁Cow
fällig
▁Sicht
▁mum
▁Mediterranean
nev
bü
▁slave
schnitt
▁firme
▁spill
▁wages
▁refine
▁upgraded
▁gospel
▁quartier
▁#2
▁Situation
▁suggesting
▁acne
▁Murray
▁Ian
hören
bia
▁Bewegung
▁abzu
reveals
friend
▁Connecticut
▁Testament
▁Lit
▁Ship
▁minunat
▁Moving
▁Device
▁Bake
▁qualification
▁challenged
▁Hinweis
▁sechs
та
120
licht
▁supervision
▁milestone
zeig
▁emphasize
▁complain
sack
▁rebuild
projekt
▁saint
lette
rade
▁pacient
signed
▁mil
cali
▁brochure
▁Bulgaria
Har
DH
▁jumping
ären
▁tactics
▁soleil
lessness
steigen
▁Brief
▁Oz
credit
glass
▁Baltimore
varies
sourced
▁documented
▁devine
möglichst
▁früher
outefois
▁Engagement
▁anumit
▁1930
▁Aufgaben
▁lineup
▁Cad
améliorer
▁februarie
▁cancellation
▁locks
▁modèles
▁breakdown
Ticket
▁Chen
▁Competition
▁median
rische
▁multipli
▁Belgium
▁Physical
▁parameter
▁carrot
▁mandat
▁towel
▁insured
PRI
etter
▁Oder
argued
FB
versicherung
abila
▁Coin
around
▁Lorsqu
valent
▁weltweit
Mod
▁defect
ibly
▁Juan
▁Jur
large
▁indicators
invest
▁rehabilitation
nag
▁Grundlage
▁Strategy
▁supérieur
▁orbit
▁Auftrag
▁Verb
ANA
▁trimis
▁Rub
institu
▁inspect
▁Princess
especially
▁combinations
▁gaze
elemente
deal
polis
shaw
▁Republicans
aded
▁Louisiana
▁Ville
▁afterwards
ONG
▁dryer
▁Manhattan
▁recomanda
▁juca
▁Crown
▁flesh
sichtig
▁rempli
▁deposits
▁Voll
▁analysts
▁Krieg
▁Rosa
▁Supply
GF
idad
▁flush
▁circular
▁național
▁lorsqu
▁analyst
▁Jahrhundert
▁biology
copy
▁bringt
▁Gospel
▁sorgen
zeichnung
chair
EB
▁Beth
115
▁Neue
▁faible
▁methodology
spiele
▁cherry
▁Mak
▁volet
funk
▁aktuelle
▁Yahoo
▁Zusammenarbeit
▁Serve
▁simpler
intégr
ndlich
▁actress
▁reuse
▁reviewing
statt
▁diving
▁Național
voi
Disc
▁Mineral
▁emit
witz
▁forgot
▁dim
upper
sichtlich
▁parcours
8:00
▁keyword
▁upgrades
kunden
▁Seg
▁Circle
▁ginger
mment
▁expenditure
▁parle
▁Counsel
▁Gui
resident
▁benchmark
▁Elektro
▁réalité
▁ridiculous
▁necklace
nian
▁Move
▁elevated
WE
▁Drum
▁Delivery
indicating
▁Benjamin
▁Samuel
bene
▁experienta
▁rocket
▁fossil
▁festive
▁conscience
▁bacon
▁aero
public
▁zic
ombre
▁Drain
7.5
▁Deutschen
reportedly
▁Français
▁enzyme
▁inquiry
▁presque
▁Airlines
▁Salon
▁Volunteer
▁modular
ón
NH
▁souhaite
social
▁Include
▁Decor
dded
▁Außen
rendu
▁MBA
▁columns
▁Wing
▁landmark
schritt
▁désir
(5)
▁réseaux
income
▁revised
HY
▁Explorer
▁Lam
▁almond
▁faux
opt
Out
▁virtue
▁Chocolate
▁spannend
▁spices
▁Climate
▁Residential
gung
▁filtr
circ
sisted
▁dedicat
▁foil
▁uita
▁lié
▁Demo
▁spoil
Cu
naut
▁configured
UK
▁disagree
Medic
cosm
Toute
▁beneficia
fassen
▁bail
igue
▁Mă
▁strips
▁Dritte
▁putere
Play
▁Samstag
▁households
▁persistent
uben
Web
▁scenery
▁défini
news
eira
▁Mumbai
▁Ward
▁ladder
▁plaque
nés
▁condamn
▁attribute
atti
▁Emily
▁pleine
▁automatisch
ifies
onna
▁inject
▁evolve
▁breeze
▁montre
▁memorial
ämlich
NBC
▁1940
▁trouvé
when
▁Büro
▁probability
cute
▁sturdy
AMP
▁Constantin
▁batter
▁bist
▁streams
rushing
▁shaft
▁proprii
émi
online
▁vanity
▁mural
▁distinguish
▁niciun
▁européenne
▁secretary
▁gaps
▁realm
▁elastic
▁Avoid
▁mauvais
▁innovations
▁suprem
▁vederea
wenden
-40
prenant
utilisateur
▁Oliver
111
▁manifestation
▁Rachel
agog
▁seamless
▁Employee
▁dimanche
▁banii
▁Ruth
▁Roy
▁homeless
▁Lower
health
▁atenti
▁touched
May
▁Buc
▁explored
▁declare
▁garment
▁buzz
▁rappel
▁uscat
▁Hyper
Etat
▁Titel
product
woman
▁Gab
▁advances
2/
prone
kö
▁counting
Sollte
▁Konzept
▁backgrounds
jährige
▁Alltag
▁metrics
▁illustrated
▁Charge
▁thoughtful
gesetz
pfen
▁déroul
▁checkout
quette
▁pierdut
▁Seat
▁linen
archiv
arna
importe
▁PHP
▁Parents
▁Birmingham
▁Integr
▁Mason
zieht
▁camps
OG
▁syrup
▁Cookies
▁Comfort
ută
abia
zeci
▁Gardens
▁incidents
▁participat
▁glimpse
5.5
▁dealers
▁Grande
▁raid
owing
▁contrary
Earlier
tien
drop
▁angajat
▁procesul
▁focal
▁impart
▁Abschluss
carui
insul
▁creamy
eille
suppl
▁Heaven
éna
▁swap
▁vreau
▁Bryan
▁Zug
▁glance
▁elimin
▁yeux
wehr
2.5
▁poses
▁parcel
▁Apartment
▁NASA
▁bénéfici
▁Umgebung
asia
abi
coup
synchron
▁Sicherheits
bic
▁distract
▁rentals
constru
curs
genannten
▁Shanghai
▁vague
▁Leather
▁Vintage
pointing
avant
gues
sweise
▁Greater
fig
▁Blut
▁Stellen
▁isolation
▁overhead
▁wondered
essai
aves
▁Shore
▁INC
rufen
▁magnifique
▁intéressant
▁tanks
▁Tun
▁approaching
▁relay
▁Küche
describing
▁Certification
▁Breakfast
▁Frame
▁Stoff
▁victime
Observ
▁gutter
standard
▁Sci
▁sept
▁Potter
letter
▁tobacco
▁threatened
MW
▁Cher
0.1
mitted
zustellen
dominated
/16
POS
▁Zin
▁Okay
▁projected
▁selber
▁proiectului
▁Shell
▁cartridge
Message
haben
▁slides
▁gleichzeitig
▁Racing
▁20,
▁separat
▁repeatedly
▁casting
▁sacred
verfahren
▁echilibr
▁rebel
säu
ummy
▁backing
▁sponsors
▁Stress
▁Rules
▁render
▁funktioniert
▁Pearl
▁Scho
schwer
▁descoperit
holen
imposed
▁appearing
▁höher
▁Victorian
▁founding
▁Polish
▁anume
Box
▁intrat
▁Inspiration
▁Canyon
▁Franklin
▁susceptible
trap
▁Roma
▁ethics
▁Privat
▁journalists
▁Universität
▁conditioner
folge
kirche
gehalten
midi
▁radar
▁Yard
▁professionnelle
▁Orchestra
▁immigrants
▁refined
▁Bishop
string
▁majoritatea
▁workflow
▁întreg
went
▁trat
felul
▁hardwood
▁Task
branded
▁cinq
▁curb
▁Discount
▁Episode
▁Knowledge
▁tricky
▁characteristic
▁plata
▁Labour
▁Tha
▁Liefer
▁Reader
▁Linda
ittlerweile
defining
▁delayed
▁Bewertung
▁Unique
▁Champion
2008
▁conclu
▁câștig
▁scheduling
▁sailing
▁Storm
▁Stil
▁Album
▁ultime
url
▁terrific
▁remedy
▁Around
▁Kni
etty
Managing
▁Bedeutung
▁earthquake
▁Telefon
▁Upper
▁validation
-22
▁queue
tinde
built
▁voix
▁Resource
ţiuni
▁satisfying
▁Kohl
▁Materials
▁esp
enseignement
danach
peux
▁deployed
▁1976
ușor
élection
ettes
▁Madison
108
berger
▁pedal
▁quasi
▁lend
VER
▁chapters
▁idei
Deine
▁endure
▁Studios
structure
▁puiss
▁Morning
guide
▁Wave
▁banque
änd
oubli
▁mixer
▁remedi
▁scop
▁Rosen
▁spital
blau
▁financiar
avour
Def
▁socket
▁occurring
▁munci
▁realiza
▁beating
▁Phillip
▁courant
Auto
▁Lager
▁folos
▁moyens
▁Ec
▁Strip
sparen
▁Nintendo
▁Murphy
▁flux
▁mots
▁rechts
▁cardio
avoiding
érer
hiel
▁rezistent
close
hésitez
Hz
▁elaborate
▁permanently
▁Pittsburgh
▁counties
▁bookmark
▁Label
▁Freude
▁preferat
▁Mein
▁Crew
▁clips
8,000
▁recognise
ință
▁prieteni
Heute
ancienne
▁annoying
▁awful
▁Comments
▁musician
▁Elite
▁patri
▁Coupon
▁Farbe
▁contribui
hari
▁activitati
▁Traum
1.8
▁Healthcare
▁refresh
▁Maha
▁dép
▁Studien
▁spectacol
impro
▁commentaire
ported
▁reclam
▁Verkauf
▁newspapers
▁iubit
▁Kenne
▁Consultant
▁stau
TON
▁Fehler
▁lettre
▁investigator
▁quantities
ogram
avaient
▁reducere
Lite
kurs
pré
pap
▁Männer
▁gauche
▁ähnlich
▁sunlight
▁rester
jumped
▁exclusiv
▁electoral
▁Portal
ulent
▁sonst
entraîne
▁repas
▁redus
aku
▁Graphic
▁geringe
plätze
Trebuie
▁rezultate
▁configure
▁PV
▁insect
▁Reviews
releasing
▁appliance
▁oferte
▁WILL
rion
▁Cole
▁1975
Admin
▁parade
▁mélange
▁shortage
▁Measure
anchmal
▁transfers
▁sistemului
▁deschide
▁Künstler
▁Plain
▁messaging
▁metabolism
fill
▁Bomb
usine
▁restart
▁Discussion
smith
▁Bh
▁sap
Moo
▁indirect
▁eingesetzt
▁Hip
▁iulie
▁atac
▁passport
▁Egyptian
▁soluți
▁cakes
▁Fellow
▁collision
▁abundant
▁Wonder
▁theories
landed
▁meantime
schlüsse
▁helicopter
Voici
▁Honey
▁deleted
▁Projekte
▁gasi
applique
TAL
notch
▁Response
▁deveni
▁regulate
▁vegetarian
▁Pastor
▁Strong
▁élèves
▁alimente
graphy
▁spirits
▁Cau
determin
arilor
▁masura
RAN
marked
cuba
omni
▁detox
▁quartz
▁Bug
▁Sugar
▁opponents
▁solved
semn
▁Prepare
ffel
▁Highlight
▁curent
▁praktisch
▁lending
▁minority
Free
business
▁outlook
▁assessments
▁Brother
▁partager
▁Brun
▁pedestrian
anța
▁recycled
▁quicker
▁lamps
▁nationally
▁Supplier
ograph
engage
▁Marg
▁aplicare
▁scared
▁accredited
▁outils
▁bâtiment
▁existed
gegangen
▁elevation
▁Tradition
▁Gericht
hub
strahl
build
▁Customers
klasse
▁pierre
(2)
Life
▁bachelor
▁quad
▁dispozitiv
106
▁suburb
▁1977
▁Alzheimer
▁spicy
▁spreading
nötigen
▁novels
▁responsabilité
▁Bud
▁desirable
TOR
five
▁Firmen
oeuvre
grass
▁practically
▁runners
▁mothers
Shop
▁Chicken
▁License
▁Bach
earliest
▁replica
▁haunt
▁materi
▁Finland
▁europene
abilă
cati
▁cholesterol
...).
cardi
▁(12
analyzed
▁respondents
▁höchste
▁Kern
▁knapp
▁Someone
▁équipé
credited
▁numar
▁Ace
zentrum
nehmer
arrivée
ELE
clean
Boost
call
▁Polizei
▁Januar
▁Tile
▁traduc
▁promptly
limit
▁recharge
▁wipe
▁Norway
▁Municipal
▁medieval
▁Treat
Orient
▁Stewart
▁lol
appartement
▁payer
▁splash
doubtedly
dry
▁Forex
▁Edinburgh
▁Traditional
▁1968
▁glow
Alternatively
▁partly
égi
▁Prices
haupt
▁sentences
ouvre
▁Liter
▁Important
▁Collins
▁reproduce
▁selten
▁Mitte
OA
▁Sister
▁responding
▁ballot
▁Nutrition
occurrence
Atunci
▁hockey
▁undertaking
▁educators
▁Swedish
▁Recovery
▁circum
▁chains
▁genug
▁Pil
▁farms
▁simplicity
-21
▁partition
▁Relations
zentrale
lapse
▁toast
▁citi
▁longtemps
maj
▁Cin
zeichen
▁Zoo
▁frisch
▁permettra
▁Liberty
▁playground
▁Mate
▁evolving
national
▁signifie
▁Related
NES
euil
▁struggles
▁instinct
arbre
▁commands
▁frumoase
▁watches
NM
▁influential
▁gewesen
▁Pictures
▁HVAC
▁skate
▁Robot
▁Boys
▁Mutter
▁marques
utiliser
▁amazed
ächtig
▁Success
gramm
▁1972
▁marina
▁lou
▁précis
ographic
people
fahr
▁Contemporary
▁frustrating
chide
1.5
▁ankle
▁proximity
▁Leute
UA
union
▁recovered
▁sword
▁Mut
▁Rin
▁lectures
▁licensing
MAC
▁commute
Acesta
▁Koch
▁depozit
▁erstmal
arhi
▁Normal
EZ
ărilor
▁favoris
▁$9
▁Lawrence
▁fixing
▁researching
▁Pant
▁candid
▁Arkansas
▁bitcoin
ва
▁Finger
▁SRL
Arg
trade
▁extraction
▁footprint
▁folosite
▁Flex
▁dys
▁Wright
▁multitude
▁Chu
▁Jerry
▁notebook
▁SIM
dietary
▁polished
▁carriers
▁cardiac
▁burned
▁sealed
▁pumps
▁consumed
▁Teaching
▁daughters
serviciile
▁Teams
▁avoided
▁compagnie
▁mașin
▁Sean
▁arunc
kräfte
vani
Metall
2009
moi
▁THAT
▁Ny
▁countertops
Pod
amente
▁offshore
luti
parked
ajout
Shirt
▁3/4
▁gratuite
mètres
▁Wish
▁holistic
gren
compiled
▁innocent
▁sorte
▁insulin
▁Academic
▁acrylic
▁hinzu
▁compression
▁viral
▁stereo
▁Concept
▁Margaret
▁consolidation
Figure
zzo
▁Egg
weiterhin
▁Vista
▁necessity
▁kayak
▁consensus
▁Katz
▁Warren
▁custody
++
▁paiement
▁foul
Chaque
▁Syrian
▁photographers
▁dismiss
▁Gaz
▁développer
▁Dakota
▁cardiovascular
▁tattoo
▁Lighting
▁nowhere
vada
▁Favor
ruled
▁Dating
gain
rism
coloured
▁refugees
▁Schm
▁happily
▁specification
WM
▁intro
rack
characterized
▁externe
▁arrives
WO
bericht
▁delays
▁Flight
1-3
▁Singh
▁shifting
▁dashboard
▁lieux
▁validate
▁uniquement
clip
cov
▁tendance
èle
▁incepe
▁chunk
▁Nr
▁Montana
▁sticks
▁caps
▁Jimmy
▁Levi
▁cables
▁SB
▁thème
ADA
▁garant
▁Joint
▁partage
schreib
ether
▁Klima
▁medicines
▁pH
Architect
știi
▁retrouve
▁posture
Feature
▁drying
trifft
ibi
▁rezerv
▁Vă
▁Speaker
▁illustration
oooo
▁initiated
PK
▁algorithms
▁zice
WI
urgence
▁bloggers
▁realitate
eks
▁cushions
▁Kri
▁réalisation
▁Photoshop
cret
faire
▁Cei
ICO
Contin
▁Builder
look
▁tenants
▁gloves
Day
firmly
CIA
▁TVA
▁notifications
▁Higher
▁Weihnachts
▁blur
ов
feder
▁explosion
▁Fenster
▁junge
▁Highland
▁Lü
▁Alba
▁Dort
▁recruiting
▁Multiple
▁animated
▁Virgin
1000
▁resin
▁matrix
irri
▁chiffre
▁Corps
▁advocacy
▁pozitiv
▁pouss
événement
▁pielii
onnais
▁Statement
crimin
hidrat
▁Jugendliche
TRI
erra
chat
▁traits
▁incentives
▁accelerate
woven
UST
▁premiers
▁Ferien
▁mariage
▁financially
gesellschaft
▁situaţi
▁quoted
▁periodic
▁chaos
▁remodel
▁Contractor
▁recuper
▁driveway
▁entertain
▁condus
▁chefs
pak
▁possède
▁outreach
▁navig
▁renewal
▁Rice
▁Czech
▁entstehen
▁droite
▁Investor
▁Soci
▁scalp
▁politiques
▁plaintiff
extending
▁paperwork
vizi
assisting
local
▁Wear
▁descend
▁Wikipedia
▁Consiliului
▁Nokia
▁facult
▁altogether
▁rankings
▁downloading
QU
▁Olive
▁backdrop
▁recomandat
▁Faculty
ANS
▁fracture
job
▁anticipate
▁drift
▁Marco
▁witnessed
▁comprend
▁bulb
▁shallow
stärke
▁Jessica
▁démarche
▁traditionally
Deputy
▁rivers
▁livraison
▁lacking
▁remodeling
▁acesteia
▁grosse
▁propus
lessly
▁Kredit
reputable
▁Sell
▁Crime
Ent
finity
▁Complex
easing
dynamic
▁eaten
gezogen
▁2004,
▁Muslims
▁Sprache
▁Truth
▁guarantees
/5
”).
▁Medium
▁décidé
▁balcony
leuchte
hik
▁Agriculture
▁securities
Probably
▁macar
▁Signal
lake
▁compétences
▁proprietary
allons
▁belongs
▁missile
țiune
▁Integration
▁testimony
▁wesentlich
▁donors
▁pivot
▁Uber
▁databases
▁studi
totdeauna
▁briefly
▁livr
▁CRM
gone
10)
▁zilele
Basically
▁medie
spotted
▁troubles
▁acknowledged
350
LB
Phy
natal
illé
bilder
▁apples
graphical
organiser
▁ochii
glas
CAP
▁Doors
▁Eis
tipuri
▁Worth
izează
nunț
▁Trip
ISS
efficient
Luckily
▁vase
▁gay
▁certificates
riad
stab
affiche
▁iPod
▁aștept
▁$500
▁Catherine
▁Circuit
▁ranch
▁consequence
listened
▁Options
feed
▁adviser
▁présenter
substant
▁Flag
▁Keith
▁inima
▁substrate
▁charger
▁reporter
ütz
▁unten
▁sympa
▁defeated
ändig
individu
▁Straßen
▁Nepal
million
▁Cake
▁investigations
▁inspector
▁Campbell
▁consommation
▁Ministerul
Advisory
▁Leistungs
▁Pull
▁lover
▁trunk
▁folosesc
pom
wunder
▁happier
▁embark
▁mediul
riff
▁copilul
ommage
rechnung
NU
▁fellowship
▁Mental
▁fever
▁silly
Object
NV
от
▁Strand
▁Exist
warum
CY
kä
!!!!!
▁moarte
▁waterfall
left
▁Nursing
▁invalid
struktur
Allerdings
étranger
▁prost
▁Parent
▁întreag
▁compensate
▁sometime
graduate
▁Carter
▁crap
▁mathematics
resemble
Dame
▁Swa
▁celebrity
▁verified
▁Behind
carbon
▁gateway
▁ambitious
▁Wellness
30,000
defined
specializes
▁Chase
HF
ABLE
▁Ehr
▁régime
▁awake
▁seafood
leading
▁Rule
verkehr
erem
▁1973
personal
ența
apprend
faisant
▁Sounds
▁Launch
half
▁verre
▁Regular
▁Nancy
quelles
▁erhält
▁socks
lamp
▁durchgeführt
▁advertise
powered
▁concur
▁ressources
▁allocation
chon
▁Larry
lässig
OLD
itty
▁immuno
▁(+
▁Essential
▁semaines
Ru
▁Gear
völlig
liga
▁Neg
▁gratitude
aventure
▁frustrated
▁retrait
▁statut
550
ла
risto
WAY
▁pigment
Selon
stil
▁Marin
ashi
▁contine
▁Economics
both
▁Dou
Fel
UNT
▁grandmother
▁domicile
▁buffer
▁fuse
▁dosage
▁Nici
▁worries
▁Rail
uneori
▁Sierra
▁porni
▁NOTE
▁tendency
Set
▁Hof
▁Ruhe
harm
▁Developer
suing
persönlichen
▁agréable
commissioned
▁1974
▁1969
▁regl
▁terror
▁température
▁Archiv
▁Military
▁König
▁forex
wiki
thetic
alaturi
▁montant
▁maladie
gust
▁demander
avocat
▁sci
▁Wireless
▁Dein
▁trio
▁Same
Datei
▁alerg
crowded
▁Punkt
▁sanctions
stating
▁discusse
▁Eigen
▁sănătate
▁correspondence
cred
VG
▁différence
▁Montreal
▁masini
iata
▁sampling
▁Gib
▁sheer
330
CHI
▁damn
▁Advisor
Typically
ssé
quart
chete
▁Puerto
2-1
NN
▁styling
rud
од
▁Hydro
▁Cable
video
▁Wirkung
▁noble
▁Sonder
mati
850
▁Richmond
▁niciodată
AO
▁altered
▁(15
▁Motiv
AKE
▁bestimmte
6.5
hectare
atorită
▁phases
▁Nova
ordinateur
▁corrupt
error
▁attacked
▁Kirche
heir
Das
▁anxious
▁Doc
▁Roth
▁Cine
▁auditor
▁beverage
▁précédent
▁deploy
▁accessibility
▁cage
▁Contra
Best
iji
▁père
▁scenic
synthesis
ßen
▁Videos
▁refus
stimmen
▁sleek
artige
mari
▁excelent
▁negativ
▁blocking
spricht
▁discomfort
▁stratégie
▁Datenschutz
curg
▁lapte
▁acasă
▁ausschließlich
▁unbedingt
▁Linie
▁subscribers
109
▁Waste
▁Planung
▁visually
utilizarea
uba
▁fifteen
▁légère
ința
▁tolerance
▁piscine
▁nails
▁accus
▁coeur
freie
enţă
▁glucose
▁Jar
▁commencer
▁eliminating
▁mutation
▁afirma
▁Consulting
adia
zog
▁pielea
rton
exercice
namely
▁ajutor
▁markers
▁gardening
Karte
▁Pump
▁Dual
▁pratiques
▁behavioral
▁construire
▁Leonard
ediglich
ubbed
NK
shell
▁persönliche
ecuring
beaten
ALE
▁puppy
▁capac
▁seventh
▁nursery
▁Rum
▁exquisite
▁Legi
▁persist
bacterial
▁cereal
▁principe
chip
rush
▁funnel
▁calitatea
ibă
▁reign
▁congregation
▁obtine
▁découverte
▁gama
▁judec
Plan
▁gesture
öffentlichen
▁imported
▁rotate
blown
▁Protein
parfaitement
ondo
ologists
▁neighborhoods
▁Pope
▁museums
▁porter
▁kiss
pdf
sided
▁gern
bedingungen
▁Ride
Apoi
▁bestehen
5"
bob
ficient
premise
▁Clip
▁concours
olar
▁Centr
outlined
▁observa
▁negotiate
▁Partnership
clock
roasted
Pourquoi
▁Marshall
▁Gerade
▁pachet
▁preliminary
▁tragic
author
▁Gov
▁comunic
▁coordinator
YA
▁Steam
▁Nag
▁Kara
▁Gang
aurez
▁horrible
▁Luxury
▁encouragement
▁conceptual
▁constituent
nvelop
ucc
▁conçu
pfel
special
▁Growth
cada
▁oamenilor
▁vendredi
▁coupe
▁Danke
reflects
▁girlfriend
▁diffuse
HER
storing
ailing
▁Desi
stitution
▁adun
▁Partie
▁tissues
▁discovering
Jacques
lungs
▁Handy
centric
slav
▁sights
▁Category
▁Einrichtung
▁Robinson
▁Terra
▁creep
▁Lob
001
kop
Emb
▁forgive
▁icons
electric
▁faucet
▁invisible
sprach
▁beachten
rahm
▁Teacher
Fab
▁joue
▁Popular
▁Februar
sound
▁(0
▁Compare
▁pads
270
ousse
▁UAE
izări
▁bonuses
▁switches
▁Brothers
▁environmentally
vista
▁intentions
▁Terri
▁diabet
▁prese
▁parcurs
Warum
▁credentials
▁PLA
▁instruct
▁benefic
write
▁poids
▁Anspruch
▁avocado
▁inevitable
▁poorly
karte
▁Publishing
odată
▁scientifique
▁lăsa
▁secol
▁nevertheless
SAT
280
▁prevederi
▁chrome
institut
richtigen
▁grief
▁penalties
▁Bayern
▁caramel
Now
Stiftung
country
dication
▁Chor
▁rămâne
▁TOP
▁complète
▁Marian
▁Avant
▁Shower
treu
▁chop
▁comfortably
▁autism
▁Sind
▁(20
▁Cinema
compania
▁Lex
▁Sofa
dru
▁verification
▁Immer
lomb
meric
▁slower
▁propag
Inter
selling
▁Bright
condition
PDF
oyez
▁Fried
▁Nazi
▁Buffalo
▁Sue
▁Rhein
▁Klaus
▁indiqu
echte
▁frecvent
▁conveniently
▁Moi
▁greenhouse
▁rédui
▁lengthy
verband
inţă
▁rigorous
▁Finish
▁FBI
cultura
▁compartment
▁pretend
▁assembled
▁Nie
fession
▁£2
algré
▁anterior
▁Wissenschaft
▁Harbor
lix
="
▁breathtaking
▁Stern
▁Internetseite
▁locker
▁feather
Serv
▁snake
▁Border
▁undergo
▁petrol
▁dealership
▁commander
▁Monate
▁Guardian
▁Todd
Ann
ibilité
▁Quarter
▁portray
▁Tai
▁strikes
illage
▁IRS
▁lupta
▁Sper
PRO
▁Export
▁crypto
▁barbecue
▁portions
▁explicit
▁angenehm
▁marathon
▁apartament
▁Eva
plate
viel
FIN
dependent
▁cercet
▁midnight
copie
▁companii
▁tenu
1/2
2.4
abri
▁warn
▁luggage
numarul
▁contour
▁Ghost
Angaben
▁unemployment
▁rău
▁dispatch
investissement
▁passt
▁Germania
▁webpage
▁reservations
▁Kai
▁Cav
▁Patient
ер
▁Belle
▁Nashville
▁Talent
ouvrage
▁bekommt
USA
CES
▁Peru
▁erkennen
prinde
▁constitution
itatile
bah
▁avail
▁disponibile
hér
ол
▁startups
▁carton
▁Newsletter
éti
▁investigating
itul
touch
Sport
AME
MIN
metry
icy
▁Luna
▁asthma
▁conduc
▁Ari
trust
▁defines
▁Blend
azo
▁sweep
lope
ţinut
WD
▁appetite
▁Seed
Friend
▁repet
▁throat
philosoph
▁connaître
▁Counter
▁Anforderungen
▁Polit
▁Weather
bow
▁recreation
▁culinary
▁plage
▁Cruz
▁equip
▁Recent
LED
▁steak
▁belly
photo
▁lakes
▁intact
▁spiral
▁Billy
▁Understanding
▁Lay
▁roster
▁admire
▁android
▁technician
gène
motiv
▁Boat
▁genießen
▁Geschmack
▁heroes
▁1800
numeroase
▁anschließend
▁Spur
▁clarify
▁warmer
▁Ranch
▁simti
Thank
▁freight
▁administrators
Reg
Această
▁legume
▁utilizare
CON
urgi
▁Gesicht
▁counselor
▁mondiale
helm
▁Promo
▁Schweiz
Ich
▁intalni
▁Bloom
▁Score
▁Fruit
▁constraints
▁farmer
▁précise
evaluating
▁Period
byte
wah
Mac
iron
′
▁tehnic
▁legat
▁Pilot
▁Carpet
TEN
▁shareholders
vină
▁parole
ătă
bbing
▁switched
▁Petro
▁Vertrags
cham
wang
▁Bean
minister
▁Wu
▁Olympics
tipul
▁Citi
▁Fold
▁Partei
▁centrale
île
pflicht
heli
▁erwartet
▁oferta
▁NHS
annon
▁Rud
▁Stuttgart
▁rămas
▁eliminated
▁hiding
▁cadeau
▁mock
▁elder
▁Liz
aji
▁endlich
sufficient
▁zusätzliche
scient
▁Adjust
▁incentive
▁Papa
▁Pharma
▁conflicts
zählen
▁chien
KB
ultimi
▁Jul
▁Male
▁viewer
▁Sector
▁REAL
▁arbitr
resistant
▁Bristol
▁shy
SW
▁Kirk
centrul
▁Venezuela
▁communicating
▁Chemical
▁surprises
▁Jamie
▁Heavy
▁turnover
▁étudiants
welcher
▁preturi
▁Mono
▁paddle
▁accountability
OUS
▁marketers
fection
▁Outside
▁Jefferson
oaie
tenue
HU
Très
valoarea
103
▁Privacy
▁Leistungen
(3)
▁études
sko
drum
▁lamb
▁nicio
▁NATO
▁Freitag
▁precedent
▁partenaires
▁companiei
▁Plaza
▁disruption
▁violations
▁Reference
▁habitants
▁compost
▁citoyen
▁Historical
vollen
▁Eck
▁lumii
▁reusit
genic
Why
ASE
▁athlete
▁Spitze
▁schimbat
▁anonymous
jedes
exclu
factor
▁Dezember
▁scientist
▁likelihood
▁Rhode
▁Balance
istoria
▁Neil
▁bush
▁Ergebnisse
▁Sinn
▁spezielle
▁jucat
▁spite
▁Ultimate
▁fructe
▁asleep
▁Goal
▁PAR
▁rows
▁Fol
▁durata
▁traditionnel
▁tema
▁crédit
smallest
▁amino
▁elephant
▁tubes
▁Verwendung
▁Excellence
▁utilities
frau
▁poze
août
ango
give
▁appelé
▁yeast
▁enrollment
organiz
▁asociat
▁cattle
▁Solution
evoke
▁Hampshire
▁yeah
▁Argentina
▁abnormal
▁Heights
▁Mitchell
▁Quad
▁textures
▁coalition
▁dataset
World
ständ
▁groove
▁emotionally
▁preciz
kte
berechtigt
▁1971
grandes
▁Broadway
▁comunicat
nui
GER
pick
inscrit
▁Gross
▁McDonald
▁Zero
▁Halb
▁caractère
▁doctrine
▁Sinne
MLS
▁réel
▁Ful
limiting
▁Gan
▁exclude
imba
rolul
▁veggies
▁fasci
▁oval
▁contacter
▁linking
▁knit
▁enroll
▁dédié
▁renting
▁genera
citing
▁bend
guin
▁caregiver
▁könnt
▁Scripture
▁Mic
▁Denmark
▁qualifying
▁costumes
▁dwelling
▁recrut
▁bedding
gesprochen
▁editors
/12
▁cumparat
fiction
▁spinal
▁pathway
▁vârst
mba
▁enthusiastic
▁Watt
symptom
▁pup
▁glorious
▁fața
▁prohibited
vergleich
▁suspected
▁Railway
▁Aujourd
▁Patients
▁séance
▁contraire
▁cuvânt
▁trotzdem
émission
▁bore
▁safeguard
▁galleries
cron
▁Rica
fläche
▁Slow
▁vara
▁Swan
▁compounds
▁Slo
▁accommodations
▁Putin
▁undertaken
▁prépar
▁gandi
sediul
▁Nathan
▁fountain
▁mère
fatty
▁concentrated
richtung
▁appropriately
107
▁shark
▁Topic
▁Ausstellung
▁SUA
SER
▁Nicole
▁utilisateurs
▁Brazilian
▁continut
▁sanatate
faudra
nahm
▁Specific
aiba
cepând
▁Beer
roni
kay
▁gravity
▁verfügt
7:30
▁Players
▁Industries
punkte
▁yacht
-04
onné
▁Cards
▁fete
breaking
baum
nada
▁geplant
genuinely
talk
▁disadvantage
▁shutter
virus
▁cricket
▁comenzi
hier
▁aufzu
▁Rez
▁conclusions
▁Wang
Darüber
▁CSS
CW
▁Chr
▁traded
▁Schon
mped
▁alloy
AVE
▁imagery
▁resurse
▁Thunder
▁schimbare
▁Youtube
▁Monster
phil
▁bébé
Creating
ănă
▁Staat
adică
▁boyfriend
▁Winner
▁disputes
▁lush
▁CMS
▁locaux
▁Verfahren
▁Café
▁Vorstand
▁lucrat
▁Root
▁decis
▁Shadow
▁countryside
▁analiza
obos
opera
actu
▁Songs
reifen
▁hilft
region
▁categoria
capturing
▁1967
▁optimized
▁Dim
▁adapté
zeichnet
▁strada
fulness
▁technically
▁marker
▁vizita
▁imperative
▁pensé
▁drilling
ISA
▁Massage
▁Terry
▁pourtant
▁declaration
▁instructors
Eventually
▁banned
MAT
▁medici
▁Warm
▁trec
▁ecran
▁goat
▁manipulation
▁mayor
▁unterwegs
▁journals
▁hedge
Merc
▁joueurs
▁Religion
▁Mountains
▁renewed
▁Limit
ikea
▁utiliza
sogenannte
0.2
▁Organ
▁Shakespeare
▁Maintenance
▁Wärme
▁Northwest
▁numit
▁mica
turm
▁motivate
▁Staats
optimum
▁sortir
▁Asset
▁hervorragend
▁commentary
▁actuellement
NER
NL
ritt
▁Wirtschafts
träger
▁Versand
▁nostri
▁enorm
▁whale
▁Aufgabe
▁unfair
▁Cord
incorporating
luck
Afrique
▁coated
▁india
▁temporarily
▁ciuda
▁coral
▁wirkt
▁folding
wichtigsten
impacted
▁wählen
▁differentiate
▁froid
▁hug
▁construi
▁membru
▁masculin
partisan
▁schimba
▁economies
▁Abraham
wesen
enia
▁answering
▁activități
▁mémoire
▁versucht
ember
▁instala
▁eligibility
▁enjoyment
▁Arme
although
▁encompass
▁zufrieden
Script
KG
▁adhesive
▁Verkehrs
▁monitored
▁Conservation
hav
▁Above
▁Former
▁Certain
saving
▁Pun
▁awkward
▁Pretty
▁scanning
layer
motor
▁beginnt
▁affiliated
▁archives
▁sunshine
kha
▁investigated
▁fantas
▁united
allegedly
▁Eugen
▁proprie
uca
DES
ştii
▁Running
lbstverständlich
index
▁studiu
URE
gültig
▁lundi
▁Zucker
▁positively
folgenden
anță
▁clan
▁literacy
▁ober
John
greg
▁titlu
▁ţări
Bra
▁Evans
modern
▁hauteur
refers
▁plasma
▁optic
▁shampoo
▁cheek
opted
▁persönlich
▁1945
ICI
biotic
▁Beruf
▁trez
▁diploma
nahmen
▁curl
▁agricole
▁recomand
▁pediatric
Fiecare
Anlage
weiß
elecommunication
hog
▁Stamp
▁Tipp
▁kindness
▁Marina
▁Gleich
▁grij
▁desperate
▁recordings
▁neglect
▁inherent
▁Rezept
▁soins
▁brut
▁revolutionary
▁liberté
cours
▁Similar
▁cheveux
▁ieftin
▁promovare
▁grains
ти
▁fonctionnement
▁Coming
▁analytical
▁simplify
▁chambres
▁fifty
jour
▁(17
cărui
▁harmony
grin
▁drunk
260
3-5
▁articole
▁flooding
halle
▁defects
▁rifle
▁Boc
▁Athletic
▁acordat
AIR
▁entwickeln
▁Advance
▁Heil
Stainless
▁Psychology
▁omul
▁Arbeiten
▁rabbit
▁méta
ismul
▁Herausforderung
▁Euch
geschichte
▁Milk
▁pregăt
▁Standort
Val
▁Ronald
▁Werbe
▁restrict
▁tablespoon
▁Amendment
▁Johnny
▁lively
ORD
▁mulţi
èrent
Every
eignet
GD
▁Ghana
▁wealthy
▁advocates
▁Campaign
▁posters
flug
▁métier
kir
bond
datorita
▁Hochzeit
▁effectué
▁angles
▁Electrical
▁Administrator
▁spur
▁größere
woke
▁gewinnen
▁ajută
▁ventilation
▁viaţa
▁Dinner
respond
▁OEM
▁affair
▁öffentlich
ENS
▁Cent
▁făc
▁Doppel
▁fericit
▁coordon
geht
▁perfekte
▁sportive
▁proiectul
▁deadly
Geschäft
▁inspirational
+1
▁pearl
▁scrub
▁scheint
poo
▁Pier
▁commented
lute
▁cancelled
Win
▁payroll
▁varsta
stuffed
▁beads
▁poems
pokesman
▁checklist
▁Mich
GEN
▁Lau
▁stie
▁Lovely
▁Anschluss
▁personaj
▁ausgestattet
▁beginners
▁noon
▁celule
Trans
boot
▁drumul
gruppen
étend
▁risques
acclaimed
▁celelalte
▁condiţii
▁skiing
▁optimale
technology
▁renew
Cloud
▁damaging
GT
▁Reform
vedem
▁indicat
▁Maker
▁lichid
3.1
păt
lumina
▁Situ
▁Archives
▁allergies
▁Cameron
▁Immun
wissenschaftlich
▁supplémentaire
▁puterea
Lab
inspired
▁shrink
▁voit
▁chopped
▁Franz
oku
▁suppress
▁impress
▁Liga
▁Eight
720
▁securely
KU
modell
Ensure
größte
▁réuni
▁Internal
▁Punkte
▁replicate
▁spreadsheet
▁Hindu
▁Cham
nati
imply
funded
▁charitable
▁imagined
hausen
Keeping
▁attitudes
esque
▁Tennis
Jeremy
▁majeur
▁stii
▁herbal
▁cauta
▁voluntary
wohl
▁ideea
▁WW
▁erneut
größten
Grâce
▁Köln
▁mobilier
▁fool
▁Calcul
attaque
▁digestive
performance
▁homeowner
▁hunger
2.3
▁Sort
▁Dennis
▁certificat
▁Canal
▁Yesterday
▁sausage
▁perdu
ösen
▁preserved
▁trendy
▁iubire
▁grandfather
▁shoppers
▁verschieden
▁gagner
▁lucra
metru
buz
▁flourish
affin
▁Pflanzen
agh
▁Gill
▁Kä
▁Wege
▁Liberal
▁Glasgow
Objekt
▁Huawei
appropri
▁genius
▁brokers
▁themed
▁barre
1.7
▁Electro
▁umbrella
▁advisory
▁comport
▁neuer
▁Wick
wak
▁Woman
▁lesser
▁replied
▁représente
▁thé
Deutsch
Cat
▁équipes
▁spider
▁Gaming
▁Liste
▁affection
lipsa
▁Spider
▁Julia
anlagen
Kon
nței
▁Verwaltung
▁raspuns
samt
▁creștere
▁decorate
▁Chain
ów
0-0
▁Cran
▁streak
ор
▁căuta
wende
▁haine
▁landscaping
▁historian
▁grandchildren
▁crawl
▁Cub
▁nécessaires
▁swift
▁calculation
▁acteurs
VT
▁Hristos
▁slices
See
▁Bran
Symbol
▁allowance
▁Effective
▁Wünsche
▁shiny
▁professionalism
/6
▁terrasse
▁researcher
▁fragile
▁greeting
freien
▁valuation
▁incur
▁Zwischen
▁comfy
▁méthode
▁Pirate
▁Moto
(6)
▁devin
▁civic
usage
▁istorie
▁piste
▁Rug
pä
▁matur
CAS
TIC
▁Reduce
▁commemorat
▁cease
unterschiedliche
▁cinnamon
▁Font
▁justify
deteriorat
▁Schön
plain
frist
▁helmet
▁statute
accept
▁1,5
▁recon
▁Möbel
▁idées
automat
Team
▁performers
▁microphone
impotriva
▁pillows
▁accountable
▁strings
hydrate
▁Yan
starea
▁présenté
▁extensively
äst
▁correlation
bespoke
▁creste
▁Armenia
nose
▁strengthening
▁Horizon
▁obesity
seasoned
▁screenshot
girl
▁hardest
▁weakness
effectuer
▁Florence
▁Europene
triggered
Apparently
▁diagnose
rushed
▁trotz
▁spécial
▁lumi
7:00
▁publicat
ос
▁hue
▁termination
▁Nam
Well
▁Extract
atiile
▁vivid
hrs
▁povesti
stehenden
▁informieren
employed
▁armor
▁Columbus
Registr
▁Kamera
▁ugly
outil
▁evenly
lungul
koch
▁Dig
purely
▁Surf
rilla
▁Watson
trug
figuring
▁competitor
▁humid
▁Lawyer
Added
▁salva
▁drainage
Featuring
▁Pel
▁acasa
▁expectation
gibt
▁marginal
ceni
▁européen
clav
▁Shot
commun
▁Calendar
▁trek
rechtliche
▁Perry
▁surge
geschäft
paced
depend
▁Sache
▁Example
▁lider
▁nochmal
▁Present
KW
prompted
logique
Université
lith
▁Gefahr
▁Acid
objets
▁societies
▁distraction
▁puissance
▁alleviat
▁Capitol
▁Heim
judicial
▁nowadays
▁Hammer
▁metallic
▁distr
▁dispos
profile
▁Nicolas
▁presa
augh
schuss
▁Diana
4-5
▁Chapel
▁zahar
âmb
▁Tarif
▁devastating
6:00
▁100,000
NIC
▁Lucas
▁bequem
▁Motion
7,000
▁malware
▁avenue
▁manger
▁Queensland
▁Papier
▁Increase
▁implies
▁äußer
▁Meine
Reuters
▁Belt
Educat
▁Aktion
schläge
▁înregistrat
▁Ortho
▁bulbs
kap
▁peinture
▁Lounge
▁Tampa
ifiziert
kinder
▁comparativ
häuser
incarn
▁amazon
▁Southeast
▁economical
▁broth
▁Secure
damals
▁Elementary
▁Wildlife
▁Jewel
▁protocols
▁zbor
▁enthusiasts
▁Mirror
▁soak
▁Sad
▁dishwasher
▁vollständig
▁Vermont
▁caut
▁fournisseur
▁Concrete
▁Instant
▁reveni
▁Surface
zumindest
▁feast
▁stretching
ERA
▁Scholarship
▁vineyard
▁régulièrement
▁patches
▁Gamb
▁Vereins
ège
▁constitutional
erreur
▁Colombia
UF
aider
cision
▁publishers
▁prelua
▁keiner
▁amid
▁quantitative
▁decay
▁distinguished
▁Gründe
▁statului
CAT
allow
▁mathematical
▁tragedy
▁heels
opia
▁merger
dispositif
▁pneu
elte
▁Introduction
▁biscuit
▁leftover
▁tester
▁Terre
▁Oui
▁rar
▁beverages
▁parenting
1-0
▁Barry
▁Lynn
▁Tyler
▁fotbal
dron
▁donor
▁drape
▁positioning
▁Tang
▁overwhelmed
▁perte
▁blender
TG
GHz
▁administrat
▁glaube
Char
impression
proving
▁Inner
root
▁Gedanken
▁underway
coat
▁thereof
rius
▁intermediate
gmail
114
▁interfere
▁Found
LF
▁equality
▁concurrent
akh
▁touching
▁curiosity
▁rendering
▁1964
sorge
ARC
▁Desktop
▁Tak
filtration
▁gates
Sehr
▁spatiu
▁Leg
▁aviation
wandel
▁Shar
▁Volks
maz
governmental
euros
avantage
sitzt
IER
▁Theory
Cependant
▁Teachers
anspruch
▁afecta
enko
▁breeding
▁Peak
▁găsit
▁măsuri
edia
biz
zum
▁schwierig
Sense
▁Jump
▁cocktails
abhängig
realised
▁programul
▁prévu
▁twitter
Union
▁Marathon
▁Christianity
▁Alberta
einheit
▁wellbeing
phen
▁Charleston
▁uncover
▁humaine
▁bleeding
▁manipul
▁humidity
▁Puis
▁aktuell
▁Nissan
▁Eisen
treiben
cios
ikh
acquiring
▁Wallpaper
▁rond
▁Doug
sourcing
▁1900
▁buni
vest
▁Bangladesh
Home
▁wrinkle
rado
▁Pain
▁herzlich
MRI
UG
▁Desk
▁remarc
▁sodium
▁Jede
▁réelle
▁Polar
▁activists
lasted
Some
ISE
▁peine
▁crude
Maur
▁forcing
▁politici
▁condiții
▁Saving
▁descoperi
avenir
Akt
▁vocabulary
▁pont
West
lenk
▁Verbraucher
affects
▁Flower
▁Nebraska
▁assortment
hock
▁discounted
▁Sensor
Lie
▁Volkswagen
isseur
indice
▁scanner
fashioned
▁postal
ouvrir
▁seminars
ioase
▁Stanley
Various
essentiel
▁administered
▁concession
▁mould
▁strongest
Erlebnis
▁ehemalige
▁Tale
▁Buyer
ück
▁Kommentar
▁Schrift
Design
▁stirring
▁towels
▁$30
sprache
▁Regierung
▁nachhaltig
▁électronique
▁Andrei
because
informatique
IGHT
stepping
▁gris
vious
▁upside
▁Examples
IU
▁princess
spielen
legung
▁reflecting
▁Processing
▁jungle
▁insects
▁Sibiu
160
▁interessante
▁multimedia
essel
/18
nière
ministru
▁implants
▁Settings
▁invaluable
stains
onym
▁searched
▁disappointment
▁Iranian
▁questionnaire
Founder
▁Bericht
▁youngest
▁Automatic
▁plecat
geber
soweit
▁unfold
▁befinden
▁susţin
▁Mack
▁dificil
enseigne
▁vitamine
▁Memory
ripping
drin
3.2
▁verstehen
▁scaun
▁procédure
▁molecules
▁Anzahl
▁yogurt
▁Dominic
▁shocked
▁zilei
▁Heiz
▁Educational
BN
analyzing
hair
spiegel
▁illusion
BG
deductible
▁adj
▁accessory
▁Draw
▁airlines
▁satisfai
▁architects
istische
▁Healthy
großer
▁comunicare
▁Meyer
▁reproduction
▁Manufacturing
immobilier
▁Unterschied
▁cumpara
▁duplicate
▁(16
▁detector
▁observat
▁1965
▁Fantasy
▁brauchen
▁Participants
▁décide
▁kicke
▁SSL
360
Anim
▁cupcake
▁Lamb
▁Sä
ntă
▁Pig
1,000
nhof
▁discret
▁deloc
▁Bücher
chor
course
▁cough
▁erstellt
▁Than
stätte
▁exceptionally
▁semnal
▁Interessen
ле
xx
▁Veterans
▁Kreuz
▁Nachricht
treated
▁tide
▁nonetheless
▁Subject
▁Stau
▁stickers
Alp
▁flagship
▁trimite
▁polyester
▁locui
▁chili
▁Browser
sieg
▁Arabic
blich
▁wunderbar
▁furnishings
rtie
8.5
▁Sponsor
▁glitter
▁piaț
▁interviewed
▁Statistics
▁cerc
augmentation
▁Navi
▁Begriff
▁știu
▁unabhängig
▁könnten
▁travaille
▁companie
▁Scientific
▁Outlook
▁fairy
zam
bak
▁Traffic
gerät
▁freezing
▁broadband
110
▁revenu
listed
▁Rico
Laure
ATA
▁participer
▁sponsorship
▁distress
▁Brisbane
schönen
▁fizice
▁Political
uhr
▁procedura
▁hervor
melted
▁Emp
▁Ernährung
▁Pendant
▁recipients
Claude
▁regimen
expo
adevăr
▁critically
▁grabbe
▁Kann
▁directeur
gator
problem
scribe
▁exig
Tri
▁aqua
appréci
▁viaţă
▁dominate
disc
▁conseiller
▁shuttle
▁Status
▁ausreichend
▁spät
▁remainder
wett
schlossen
PAC
▁suprafata
5.000
supplying
▁uniquely
▁retard
▁Bang
ieuse
▁Ted
▁ermöglichen
▁builders
▁proximité
▁unforgettable
256
fähigkeit
▁procurement
▁Gewicht
▁potentiel
▁topping
▁canada
▁Destin
▁Knowing
▁retained
▁zinc
▁worrying
faţa
▁initi
ORI
▁refuz
bruch
▁impun
▁persoană
EAR
bedarf
▁Gebiet
▁Roof
▁negligence
security
▁accesorii
▁unclear
▁securitate
▁spotlight
▁speziell
▁mentally
▁preservation
▁Promotion
partnered
▁Hinter
▁punishment
▁grease
▁NW
▁curse
ckle
▁Hire
▁Whole
▁basse
▁DNS
flamm
▁scoop
Norm
▁Surgery
▁widget
connected
autorité
▁utilis
▁formă
▁clearing
▁jumătate
größe
▁Tief
épi
zunehmen
▁touchdown
▁scholarships
▁dementia
▁Jeder
▁nightmare
▁Raw
absorbed
lohnt
quent
interest
OSS
▁Leaf
▁timeless
DY
▁Remote
chner
▁Pam
urban
во
▁Kunde
▁Laptop
finder
▁Pole
2.8
finished
▁prophet
mailed
2-0
▁disciples
▁intriguing
IRA
petit
▁Membership
▁provincial
▁Prüfung
-50
▁cryptocurrency
▁journalism
▁Downtown
inserted
▁Direction
lipid
▁Sebastian
fordert
Originally
tipp
verantwortlich
▁wheelchair
▁structura
▁Danny
999
▁Schiff
formally
focused
▁Vater
▁Dear
▁reinforce
proprietar
▁Kyle
În
▁servir
length
▁showroom
reli
▁Brü
▁Schle
▁profond
▁Superior
▁lifted
highlighting
▁Connection
▁similarly
▁diferit
▁sweater
État
rooted
▁sleeves
де
▁Laboratory
ündig
▁Viking
▁Origin
▁vibr
199
▁yummy
STAR
▁repro
▁Kirchen
hopper
zza
▁vitesse
▁minimalist
▁Election
draw
▁candles
▁Mund
urged
▁cânt
Ultimately
▁Lift
loaded
demand
▁aleg
▁Discovery
▁Vienna
▁Kategorie
▁Cotton
▁$200
▁Drei
▁reicht
speicher
▁Immobilien
gefühl
make
pell
▁dull
▁arbeitet
retaining
losen
match
-60
▁ecological
▁vend
▁grammar
▁1:1
grilled
geordnet
▁Pav
▁Depot
▁Walking
teamed
▁torque
▁Venture
▁beginner
▁Monaten
▁Pune
connect
▁textbook
▁unprecedented
▁implied
▁cubic
enthält
▁Brenn
▁Expect
▁lever
veux
▁Claire
Acc
▁Typ
▁smoothie
▁Idaho
▁spati
▁bénéficier
▁Kle
▁serviciilor
▁prohibit
EAD
▁Turner
▁elibera
▁payday
▁prolong
▁sued
▁Devil
▁Skills
▁Marcel
▁silhouette
▁preț
▁Gö
▁Creator
fed
Cap
▁dedicate
0000
▁VAT
▁Firefox
▁therapies
▁screws
▁Province
▁problematic
▁Vid
▁Lost
▁elegance
▁Elegant
ignant
▁darin
▁anonym
▁vegeta
incoming
▁pills
governing
▁Haven
paper
räume
paw
▁spelling
ambele
▁reprezentat
▁mâ
wirtschaftliche
▁valabil
▁konkret
▁financier
▁irre
▁Silicon
Viv
▁viruses
▁CNN
▁erleben
gina
punctul
▁Sfânt
▁Manage
▁payable
▁practitioner
▁conférence
▁drought
▁devote
wertung
stabil
▁balcon
▁Lebensmittel
COL
▁Domnul
carved
▁preparat
101
▁specimen
urgeon
LIC
Plattform
▁ramas
▁copilului
bacter
körper
▁Kru
▁Employ
office
▁simmer
qualität
▁freshly
▁Nine
▁tonnes
boden
enquête
▁Colour
▁Diagram
▁gewählt
▁viitoare
▁reporters
guer
▁Kombination
▁qualitative
Centrul
avy
▁Eng
▁sufletul
▁germ
▁prevented
appelle
gins
▁Skype
conditioned
▁clutch
environ
3.3
▁webinar
▁forty
▁Medicaid
▁dismissed
▁siblings
▁Jaw
guiding
cigarette
▁Shah
▁Lehrer
▁muscular
spatele
▁réduction
▁fixes
Span
▁Hudson
development
▁excluded
Democrat
▁nominal
purpose
▁bored
espèce
▁(30
Neither
hänge
square
voller
▁pertinent
▁Wool
settling
fangen
▁Testing
distin
▁Marken
▁Beta
▁fulfilling
Leider
black
occupe
itățile
Pay
▁bandwidth
▁neighbourhood
▁Gutschein
degree
ivité
4.1
▁tätig
topic
ätz
these
▁propriété
▁innings
▁Prevention
▁Saw
▁opener
entwicklung
▁Johann
▁statistic
oids
▁Delaware
▁Isle
▁accompagn
▁Risiko
▁Conform
zeichnen
▁acuz
▁Mort
Fällen
▁blended
found
▁gestalten
▁Découvrez
▁Wett
▁débat
▁Tire
benz
Yes
▁pierde
▁niciodata
▁precipit
▁lazy
▁creature
Wettbewerb
▁Explo
wolf
▁conséquence
▁jewellery
▁Extension
▁transmitted
▁darker
▁simbol
kim
▁proteja
▁Copper
mitglied
▁explosive
▁Nicolae
▁intricate
lati
Mark
▁Porsche
▁Revenue
4.2
certain
▁Coaching
▁allocated
▁optimiz
▁heel
▁indigenous
▁vineri
▁Inspector
▁colleague
ANG
éducation
▁Geschenk
channel
▁trapped
BF
▁firing
▁chlor
▁Carlos
▁proxy
▁pinch
▁Pete
phospho
▁waiver
▁Croatia
▁behave
▁frig
▁Vorteil
▁wichtiger
........
▁flick
▁Stanford
öse
▁Fernseh
▁vélo
reisen
residing
▁Taste
▁disappeared
▁Hood
▁fabriqu
▁Jake
Lastly
▁furnace
▁Ottawa
▁dictate
zece
protect
FU
Stack
▁teilweise
▁Publisher
▁lutte
202
psy
▁wünschen
▁pathways
ivitate
▁continuă
ziemlich
verted
▁sequel
tinct
vette
▁exceeding
▁Yorkshire
▁cleanse
Sadly
▁präsentiert
angled
tude
chain
▁Oakland
xia
▁foremost
▁incomplete
▁restriction
▁whatsoever
▁shipment
**
Aici
PART
▁grams
▁Folk
▁encryption
▁Alfred
▁Veränderung
▁privately
£
▁Sonne
kow
▁CBS
▁Feuer
▁crushed
▁cazare
▁beraten
envoi
▁genannt
▁Lok
nox
wishing
▁freak
rasi
▁calculations
▁sprechen
5:00
▁Gam
▁invasion
ZA
aiming
▁näher
▁Maßnahmen
▁măsură
▁Bestellung
▁gown
▁oblige
länder
posi
▁Earn
▁dubl
▁sticky
▁litter
▁Salz
▁Matter
▁Driving
▁pursu
ographer
▁touring
opter
▁fierce
▁Audit
▁imperi
▁positiv
règles
▁bouton
▁victorie
▁manuel
▁await
▁transformer
▁cupboard
▁Hag
naj
▁annoncé
▁scolaire
▁étape
▁pirate
▁Rated
LOT
▁natura
oga
Read
idio
▁recession
veţi
▁blossom
▁lunar
▁inhibit
gemein
▁Historic
▁HTTP
misiune
▁Manda
▁Hurricane
Strat
▁populaire
▁useless
▁Leipzig
▁Krankheit
▁Bonne
▁tissu
▁Baum
▁BUT
▁Mondial
▁triangle
▁Tesla
▁pământ
▁aminte
▁vehicul
▁cerut
▁respiratory
▁rayon
▁gestaltet
310
pfl
▁shrimp
▁reconnu
ologique
▁unity
Speicher
▁Movement
ddling
OE
▁Resolution
esteem
▁Teen
▁believing
▁Tipps
jpg
▁obs
SHA
▁quietly
setting
▁elevator
phor
Just
▁legatura
elected
▁disclosed
quarter
zzy
▁gata
SAN
▁Cathedral
192
▁RBI
▁Seller
▁urine
▁Hardware
▁steadi
percussion
▁francez
▁rude
bod
cession
▁HTC
HB
▁descent
▁Painting
119
sagen
▁salvation
arro
0.3
▁Duck
Mit
да
▁Diesel
▁Medal
▁interim
▁montagne
▁Pixel
LINE
▁dureri
▁Bengal
Legea
▁Strecke
▁schneller
▁Karten
cion
▁Coco
troisième
401
▁sandwiches
▁folosind
▁Folgen
▁triumph
▁Hintergrund
▁revelation
ôme
▁Nex
jährigen
▁militant
▁fabricant
iano
▁formulation
integrating
▁Items
▁contractual
AIDS
▁pitcher
▁Snap
▁systematic
▁referendum
gau
administration
▁speci
ieni
prox
▁bouquet
▁sinnvoll
▁Fleisch
ktuell
▁mushrooms
▁Straf
▁cresc
TEM
▁vindec
▁Drama
chief
▁müsst
▁Warner
118
▁saptamana
▁animaux
▁Directory
▁entgegen
▁deduction
▁Strategic
▁rats
▁Moses
eko
strict
▁Ashley
mik
▁relocate
▁whip
central
mack
stufe
▁Metropolitan
▁croissance
▁celebrities
▁Geh
▁verifica
▁satisfac
▁Julian
▁remotely
▁Safari
▁Chic
▁clamp
▁Schnee
grown
▁Character
▁charities
Thankfully
▁țară
IZ
Vielleicht
▁Pon
gegen
chez
Black
▁alimentare
▁verloren
▁predictions
Founded
▁femeie
wahrscheinlich
▁squeeze
▁verfügbar
▁hygiene
voire
▁birou
▁initiate
▁Patriot
▁Income
▁marry
lokal
logic
▁Abstract
▁grundsätzlich
▁tariff
▁definitiv
paz
Result
1:30
▁Latest
▁Dauer
Med
gewicht
▁Gaza
▁Newton
Dokument
formular
ILE
▁surse
MH
▁Arctic
▁ISBN
▁quarterback
▁absurd
▁Zusammenhang
▁Module
mented
worthy
▁célèbre
▁maritime
▁Reed
▁threaten
▁Satz
▁sticking
▁transcript
▁Morgen
▁Förder
▁Gottes
▁Coordinator
LOG
EAN
▁préparation
▁Brass
Așa
▁Utiliz
framed
▁asphalt
116
▁historically
▁doamn
Air
▁economist
fresh
engine
▁Rücken
▁worthwhile
▁Therapie
▁Joshua
sicherheit
▁scena
ifiant
/20
fehl
karten
501
▁vide
▁miliarde
▁trillion
oudre
nderung
▁inquiries
▁echipe
▁investiga
▁detailing
VIS
▁geographical
▁authentication
▁Schwa
▁Scri
▁discourage
Pass
▁scattered
▁langsam
telles
▁ramane
▁inhibitor
▁Habit
▁10:00
▁rezultat
äck
,000.
▁remedies
▁comportament
namen
▁#3
enstein
▁relevance
▁présentation
MHz
EMA
▁palace
▁vizibil
▁griev
▁severely
expert
▁ravi
▁feasible
▁Wholesale
▁graduat
Kü
▁quotation
/11
lutter
▁dice
modal
ggling
▁considér
▁Insel
▁Database
icism
▁quarterly
▁formule
▁renouvel
▁Treasure
▁1962
▁republic
▁États
▁salut
HK
▁Bali
▁Rechnung
fruit
lays
LAS
inclin
▁Cré
▁compt
țiilor
heft
▁Comisi
▁Nurse
loid
grove
▁Copy
▁Kampf
izată
würdig
-2018
ozo
▁integriert
▁réunion
▁mică
▁Chau
▁allegations
▁shaping
▁transcription
▁Monica
▁torture
▁cooperative
▁invité
▁bamboo
▁Thinking
▁gratis
117
renz
▁Fußball
▁Gram
sprung
▁Schluss
▁Diploma
▁apparatus
notably
▁exercit
ământ
▁masses
▁preuve
great
▁Drink
islam
ARM
indre
DW
▁Flowers
▁pill
▁objectifs
▁Bezug
▁assumptions
▁vesti
route
▁Bangkok
▁seamlessly
config
▁username
unsure
▁poser
▁impozit
▁metode
defending
▁Nic
▁Vertrag
▁plăcut
▁Pou
UCH
▁Fein
reading
snip
▁Livre
lander
▁hydraulic
veiled
intr
▁Domnului
▁$0.
▁kilometers
spann
▁credibility
▁eBook
VERY
▁Charm
Evangeli
▁anderer
▁Entry
ffy
▁Exc
▁Omega
▁Funktionen
▁Gay
▁acht
colored
itude
▁accompagné
▁unfortunate
▁DIN
▁installment
▁indépendant
These
mitten
thank
▁Trek
üchte
▁cuir
▁turbo
Table
▁Extrem
▁advertisements
▁chaîne
▁corridor
▁râ
▁Opening
Get
▁storytelling
▁severity
4"
▁parasit
angebot
Data
listen
▁vârstă
▁swallow
TRE
▁daunting
▁Oli
▁definitive
▁rezerva
/15
▁Landschaft
▁Automotive
▁convers
▁thru
▁Township
▁tilt
▁Criminal
riez
▁Parking
▁humanitarian
▁Kilometer
controlled
▁Klick
support
handed
ämtliche
access
▁eleven
▁ferry
zieren
▁Gebrauch
▁vigoare
MON
fox
bestimmten
▁Gur
▁Mannschaft
▁patrol
▁casă
▁Stories
▁robotic
tiri
gewiesen
CV
▁parinti
▁Owen
▁Katie
▁Combine
enfalls
▁financière
▁parliament
▁Weekend
▁Sonic
▁fixture
majorité
▁gravel
realizate
examining
▁grim
▁stabili
▁Wochenende
▁Hebrew
▁Harrison
▁boundary
40,000
▁Ambassador
▁scoate
ffin
▁crème
▁obiecte
enţa
▁subsidiary
▁Franco
▁visuel
▁uitat
▁revisit
▁Camping
▁Divine
4-6
▁Brandon
ма
sofern
ntweder
▁Shoot
étais
SPEC
▁dreapta
▁repaired
pyr
▁warranties
▁représent
ADE
▁selective
▁Banking
▁ergonomic
...”
▁willingness
isser
▁confection
admi
▁Freizeit
▁illuminate
▁Repeat
▁Zeitpunkt
claimed
▁erhältlich
▁paysage
▁Atom
▁Graf
▁firmware
▁Swift
▁cercetare
▁internațional
▁zombie
▁Spread
ECO
▁Gestaltung
rast
▁perfume
▁roulette
▁distill
▁Produkten
225
facing
▁paradigm
▁Rah
▁Renault
willig
▁Vet
▁reprezenta
stoß
▁Weiß
▁Solo
▁Jin
▁Brussels
▁Tournament
▁proced
▁Rabbi
▁gameplay
▁ATM
▁firearm
revealing
schütz
▁Absolutely
▁interference
▁Employment
▁chord
▁oportun
▁frontier
▁Lunch
bread
▁rendered
5.1
▁motif
▁Schlag
113
▁Deux
▁surplus
ALS
▁abortion
▁airplane
▁migrants
kli
▁crochet
fahrer
▁reconstruction
▁difer
▁Conserv
▁NSW
▁regim
▁Except
▁trage
▁Consiliul
▁Bedarf
▁additive
know
▁sauna
▁mortality
kräftig
▁Own
nzo
▁villes
▁recette
▁attacking
beruf
▁integrat
realizarea
▁exemption
GW
▁Nano
SCH
▁honesty
▁Arriv
▁gland
▁proactive
▁agile
▁kernel
▁nurture
▁Patent
▁excursi
pulsion
stellte
ständige
▁Rebecca
▁Securities
mètre
LOW
▁consilier
▁Architekt
▁china
älfte
▁Combin
480
liv
▁peur
keep
▁Verhalten
▁peek
▁dient
▁prevazut
Emmanuel
▁incidence
▁Framework
dass
artiste
▁Accept
▁plunge
chauff
▁guilt
▁senator
▁disable
▁partout
JC
▁Highly
▁beneficii
fibro
interpreted
▁genauso
▁basil
▁Angst
rzte
Master
▁french
▁Duration
HM
▁Bert
▁1963
▁warrior
2007
▁recycle
▁fertiliz
▁hatch
ISH
luft
▁crying
▁activist
schränkt
▁diff
▁Demand
▁transported
▁Remodel
▁Etats
ANI
▁spéciale
▁Konzert
▁Bedürfnisse
▁overlooked
▁cutter
klär
▁Materialien
▁gewisse
bull
Good
Gig
Logic
▁Schlaf
▁Yankee
▁Batman
▁funcție
▁partenariat
▁Antrag
▁Pill
▁tram
▁Minor
pertaining
▁apropiere
▁Barack
schön
▁Sandy
kilometre
▁diy
▁1966
gelassen
▁Trial
▁Bauer
▁assumption
birth
rechnen
▁meci
▁gloss
▁sewer
▁Stimme
▁Fortune
▁Lösungen
▁impresi
schlaf
prüfung
▁instalat
▁picturesque
vait
8.1
▁călători
▁dix
▁furnished
▁dolari
▁regener
▁astazi
▁Sprach
delà
avec
▁Buddhist
▁alphabet
▁berichtet
ideally
▁annuel
▁laughing
▁Zustand
cini
solid
▁Broker
▁developmental
▁Summary
▁Trinity
▁sucre
▁sandal
PEN
gewinn
olé
matric
xton
werten
▁Dust
▁Journey
▁Rush
▁NCAA
▁allgemeine
▁Universe
▁connais
▁quantité
▁Kab
▁purse
Health
▁apărut
▁bypass
pronounced
▁magnitude
▁Walmart
ède
▁serum
▁baseline
STER
▁ONLY
▁individuell
▁Ghi
▁Ruby
▁Chal
▁Vier
5.0
▁fog
esel
▁Python
▁urmează
▁trustworthy
hört
▁tâche
Patri
▁grind
▁Raven
▁poursuiv
▁simpli
▁echo
▁Attention
Against
GET
▁turistic
▁tenure
▁alimentaire
Who
▁ändern
▁rebound
grenze
▁Fame
▁Kick
▁Detail
▁Push
production
▁Candidates
▁reușit
istischen
lassung
▁Hann
espère
▁vergessen
▁smiling
▁devotion
▁pastry
Add
▁authorization
▁Suisse
▁Berkeley
▁Guild
▁choir
learning
▁Tanz
mardi
▁rezultatele
▁earrings
▁turbine
▁jeudi
terapie
regain
SET
▁Hände
▁Globe
frag
▁Treasury
▁hazardous
▁Fahrt
▁fulfilled
▁manga
▁composé
▁ABS
▁preced
▁beauté
▁interessant
▁lieber
▁Kö
EMS
FER
▁eure
▁plumber
Love
▁Marcus
▁registry
▁uncle
▁neuf
▁Fläche
▁restaur
▁noticeable
▁riches
occupy
▁hurricane
▁gespeichert
▁Bordeaux
▁Maj
Applied
▁compter
impact
▁Improve
▁Calif
▁desfășur
▁packaged
180
devenu
▁Battery
▁objection
▁anual
▁Landscape
IQ
grès
▁witnesses
enţial
▁plateau
▁bilete
▁Bronze
▁Kiss
▁Serge
atomic
▁renovated
player
▁dirig
▁Îm
▁plimb
▁ambassador
▁apropiat
▁adaug
ogenic
kämpfe
▁Hillary
yak
General
▁Zugang
▁fertil
incat
assessing
▁Cincinnati
▁convincing
sadly
kunde
ambul
▁familii
juri
ionen
▁Wirtschaft
contract
punem
handlung
▁fournir
▁Ambi
▁Isaac
▁praying
▁Italien
233
spawn
▁legii
▁zuvor
▁comune
official
144
izeaza
▁Keller
ORE
122
incurred
CHA
▁Herzen
▁reasoning
affaire
ooth
155
▁invented
▁Comun
zähl
geliefert
explorer
nect
▁mercredi
▁volonté
easy
▁feat
rented
▁converter
Verhältnis
▁Iceland
▁pretul
▁Vorstellung
▁hydrogen
▁pouvai
▁dawn
▁Georg
▁cautious
▁Pattern
▁Ox
▁decizie
REC
▁Mortgage
attributed
floor
▁Wichtig
enseignant
▁civilization
▁dispozitie
▁geographic
▁Kun
LIN
▁auzit
except
▁superbe
▁installé
▁Peninsula
▁norme
elul
▁Experten
expression
Christ
▁Fuel
▁muffin
▁lecteur
▁gifted
▁Japon
▁SSD
▁Calgary
▁hooked
▁Joan
▁tangible
FW
olli
▁Platinum
▁miniature
▁lump
ologische
▁Istanbul
▁Compar
tropic
KING
Präsident
▁fotografii
hoped
▁pâte
▁mercy
▁quiz
demonstrating
▁douce
▁Vest
▁Harvey
▁breit
▁Bereits
▁breakthrough
▁masterpiece
▁Chester
▁indiqué
hook
statutory
▁Direkt
▁specs
Drive
▁survivors
▁jackpot
▁garder
▁Geburtstag
145
▁Clay
▁WHO
▁Ellen
▁bonheur
▁hazards
▁Kaiser
▁tightly
Universitatea
▁rinse
▁passant
▁sânge
▁peuple
jungen
▁inappropriate
▁mitigate
MID
▁telecom
▁plaj
▁presupune
acco
expressing
▁Symphony
temperatur
▁activităţi
▁amended
▁rehab
▁sportiv
hotel
branche
▁Noch
▁1961
release
blaze
Adv
Line
▁financiare
▁chauffage
мо
schuhe
blé
▁Echo
▁remarks
scriu
Vir
War
atifs
RING
▁Instruction
▁verlassen
▁ergänz
▁Emil
▁empire
▁Einkauf
utigen
▁audition
travelled
ло
▁infinite
▁Lieblings
▁vân
▁spinning
converting
▁uncertain
restul
▁colourful
▁accountant
bourg
▁structuri
▁Booking
intéresse
▁coordinated
▁precaution
▁Cheese
▁surfing
▁souffr
▁Menu
▁arthritis
▁headphones
▁upgrading
▁apparel
▁Haushalt
▁Personally
▁insane
▁fonduri
▁entier
▁Herbst
▁cyclist
▁filmmaker
▁Portuguese
▁nominee
▁Yang
▁slate
▁entièrement
▁Umgang
shifted
▁défaut
heiz
▁Seal
▁servicing
marketing
▁demandé
TING
▁modifier
lysis
▁suplimentare
OTHER
Graph
▁coincide
governed
▁locking
▁Properties
▁Panama
▁Coupe
songwriter
exhibited
▁semnificativ
▁purchaser
▁puff
Back
fragt
▁deputy
▁revien
▁Christine
▁Cities
▁Charakter
atteindre
▁fou
▁obligatoire
INA
etc
▁newborn
▁explicitly
simplest
▁plateforme
ordinate
displaying
▁messy
gespielt
▁electron
▁Dreh
▁ambient
340
▁directive
▁Vall
ookie
▁wasted
CIS
lude
rach
▁gasest
▁miros
transforming
▁Milwaukee
▁uncommon
▁tableau
geräte
ophil
▁Jeep
▁wreck
LAND
attach
▁Panther
9:30
▁induce
▁privest
Ident
▁illnesses
▁inhabitants
▁fehlen
obtenu
▁gegründet
ARA
3-2
▁milliards
▁Bü
▁angegeben
TUR
▁arab
▁Scientist
▁minut
▁beast
▁accidentally
WN
▁Ralph
hängt
▁Erik
▁différent
▁conformitate
thriving
▁Piece
plasm
▁erwarten
owski
prayed
three
▁soundtrack
guru
▁cracked
▁adh
▁maître
▁Oberfläche
▁crab
▁Foster
▁gemütlich
SIC
ième
▁Few
gérer
2006
cool
▁dispune
recevoir
▁Bak
▁steer
ICS
▁Brett
▁downside
▁residency
important
ubb
mony
▁leasing
▁Gir
▁Biology
▁Colin
▁complicat
▁regroup
SPA
▁Veranstaltungen
convicted
▁Wonderful
züge
yton
EMENT
▁bent
heben
▁Sustainable
▁Newcastle
mother
▁eighth
▁atmosfer
expériment
▁Interest
▁successes
▁preschool
▁Funeral
blast
▁dimensiuni
▁Dow
▁pulp
▁Heather
▁erstellen
locating
direct
▁tractor
growing
▁inventor
ASA
insta
yana
▁squash
▁Basketball
AMA
insel
▁Fisch
▁metaphor
TES
▁conduce
stehende
▁FAQ
▁bezeichnet
wendung
▁Commonwealth
▁bait
▁Umsetzung
▁Equi
▁validity
Off
▁produsul
▁sensory
▁Imperial
▁Dick
kampf
▁Arzt
▁Reason
ITS
URL
demonstrates
▁dépend
NAS
▁funcți
▁vulnerability
2.7
layered
escence
▁République
▁Lust
▁sute
▁autonomous
Biserica
▁Chuck
▁protéger
rrell
▁Schaden
prennent
maß
OV
▁Wake
produire
▁Elder
Max
▁Chemistry
▁gourmet
erri
ени
▁Gru
▁vorbit
▁precede
▁randomly
▁efecte
▁calatori
▁Poor
List
▁regula
▁organisé
Div
▁volunteering
▁horr
9.99
▁UPS
▁englez
▁Eden
GG
▁typing
Likewise
▁stabilize
physio
ми
▁protagonist
▁velvet
schrank
▁Allah
▁forefront
▁salaries
▁prediction
▁Advent
politik
▁Heimat
ducted
ASH
▁Mold
▁publi
▁Vil
▁stu
INTE
▁fave
▁grounded
▁Anything
vik
Bank
deserved
machen
▁rugged
▁Nest
▁profund
▁quantum
▁funcționa
klu
▁consulter
MED
▁câştig
▁săptămâni
questioned
▁Trop
▁convo
▁sparkling
▁specialise
▁pancake
habitude
phal
▁Roche
▁personalities
▁Venice
▁comerciale
▁wounded
▁oraş
▁Pepper
▁Tourist
▁Mull
▁dignity
▁Fixed
çant
▁spectator
▁somn
▁ständig
▁resilience
▁Malta
▁problemele
▁Martha
▁extern
embre
▁médical
fordern
nji
▁aboard
▁sidewalk
WIN
▁Bobby
▁umfangreiche
leid
▁compens
▁juge
gerufen
▁médicament
▁1918
▁blanche
▁pleasing
▁propria
ergebnisse
▁retrouv
urteil
▁Draft
▁concluzi
centralized
▁Hannah
grija
▁Exercise
RAL
creme
High
clude
Considering
▁Guarantee
▁cuptor
ivität
▁Southwest
▁vivant
Your
▁Stunde
▁Ethernet
angebote
▁Sage
▁Boeing
▁$300
2-4
▁nécessit
▁ferment
▁Anmeldung
▁exhausted
▁Schloss
▁Replacement
▁Aussi
jection
978
▁siège
crest
▁jumatate
effizient
▁colaborare
HQ
130
culaire
▁Jamaica
▁cardboard
▁technische
▁cereri
▁contradict
▁irrigation
Nume
▁Bier
▁livrare
▁reservoir
vâr
▁galben
▁Geneva
▁lightning
wished
▁Blind
Interested
▁Primări
anthropo
▁Transaction
▁marcat
▁gelegen
▁contemporain
▁politică
▁1948
▁Mik
▁preţ
moor
ANN
▁constructive
konzept
▁entendu
▁Genesis
arzt
▁Allgemein
▁Derby
Class
▁$12
▁Tube
▁Contribu
▁HAVE
▁oxide
▁producator
▁Bench
▁comprehend
▁Damen
▁Garant
▁disappointing
▁réalisée
▁comportement
▁clash
▁curry
▁Lebanon
▁Romaniei
▁reprise
▁perceive
▁weaknesses
▁aminti
▁Concern
shadow
▁basin
moral
▁Hughes
Psych
▁Lieferung
▁serrurier
ussi
▁timpului
üm
▁Vladimir
▁Jag
▁verific
▁Pru
▁Laut
ITA
usually
▁carrière
▁extracted
kultur
öpfe
▁rejection
▁Hydr
▁informaţii
▁tolerate
▁cinéma
traumatic
produkt
▁Contest
lotte
▁Pension
▁Advertising
▁payout
▁Amanda
Elect
▁interiorul
stay
▁feminine
▁întâmplă
▁insult
▁chocolat
▁noroc
▁centr
▁Bühne
mighty
▁Buddha
▁parental
storm
recurring
▁luxe
niște
cuit
▁ausgewählt
▁dumb
IPS
▁Thir
Definitely
▁hilarious
▁rainbow
▁Bravo
▁entstanden
itorul
▁prosperity
▁Bord
▁familiei
▁scade
wöhn
▁ingrediente
RAD
▁tăi
bours
ATI
▁Blake
▁Implement
▁Beziehung
finanz
intestin
ließen
▁récent
▁laminate
▁Hör
▁personnalisé
edel
▁advertisement
▁pinterest
185
identité
▁Brick
Glu
▁attendant
▁Flip
attracting
functional
conceived
▁summarize
adjusting
CAL
▁Operating
zzi
▁Rover
▁versuchen
▁articulate
▁privé
▁consequent
EAT
▁Marsh
▁teenage
▁Renaissance
▁furnizor
▁Desert
unicipiului
▁ulterior
▁Ebene
▁monkey
▁enclosed
▁profitability
▁Evolution
▁adica
▁Structure
▁primer
▁asigură
▁Manuel
polita
▁Portable
fecți
▁obscure
▁Atlas
fährt
▁clinician
fuhr
▁matériaux
écrire
▁suspicious
pore
▁outdated
▁Mädchen
rcis
nicht
holding
▁heavier
ezimal
▁silicone
punerea
▁begeistert
2004
▁predecessor
▁overlap
▁digging
▁Upgrade
▁interesat
▁spinach
▁politice
activity
▁Rating
▁serrure
▁tânăr
▁WHAT
▁railroad
▁avid
▁Sophie
preferably
▁Fourth
kommenden
QUI
lohn
▁promis
▁shrub
nummer
▁dinosaur
▁Lucky
relates
▁FROM
▁racism
physical
alcoholic
▁reef
▁centru
université
▁visage
ităţile
▁Gent
zugeben
▁paradise
fuel
ografie
▁TIP
schreibung
▁bark
accéder
▁contamination
▁swelling
▁optimistic
▁differential
▁Arad
toxins
▁übernehmen
▁anime
actuel
▁bientôt
▁Patio
▁baisse
▁sprint
▁bilden
VAL
▁réflexion
hopping
genesis
achtet
▁chinois
▁dezvoltat
arguably
▁Protocol
▁Sterling
▁Cave
▁Condo
▁erhöht
typische
merged
▁accumulation
sicherlich
kW
▁schriftlich
▁Vorteile
▁Northeast
frunt
istik
erster
▁Assistance
▁Fantastic
▁bărbat
▁Grinding
▁diffusion
▁vreun
▁Butler
▁Cherry
▁visualization
Paket
blin
▁cadou
▁Celtic
alegerea
▁Dorf
▁Noir
payment
▁Caroline
▁Berry
▁professeur
▁gratuitement
Suntem
IAN
▁fingerprint
▁controversy
▁fled
▁Pokémon
excluding
▁friction
therapie
/7
▁designation
▁Belgia
▁cursuri
model
super
▁réduit
▁implicit
athlon
anniversaire
▁teaspoon
▁corrosion
▁überzeugt
▁flawless
▁vegetation
▁iarna
▁psychologist
hora
gab
▁soothing
▁stew
▁wager
▁tinere
▁baut
ecunoscut
gearbeitet
▁functi
▁dürfte
▁média
▁campanie
▁Distribu
▁mentoring
▁criz
findest
▁Vasile
▁compassionate
▁Tudor
▁flare
intreaga
gaz
▁porcelain
▁expedition
▁Azure
räumen
eiro
variante
▁Lucy
ôle
▁revenir
▁stained
▁falsch
▁incorpor
merkt
▁achten
▁hello
selben
ifty
▁Feier
1.000
▁Patch
peptid
▁recovering
Symptom
▁Auckland
▁retrieve
▁800-
schlagen
▁lourd
▁Purple
▁mittels
▁Düsseldorf
▁getaway
▁Cedar
▁Function
▁bizarre
4.3
▁fundraiser
geared
▁privée
▁Bonjour
Gar
▁Lloyd
▁Reinigung
▁Geno
▁Teilnahme
pian
sammelt
Pad
▁Troy
HG
▁klein
▁lettuce
▁patrimoine
▁cooker
▁accesibil
▁Spray
▁negotiation
▁jewel
▁dynamique
▁plastique
▁Limo
▁Funk
▁omului
title
curved
▁Lemon
förder
▁bewusst
inevitably
▁derivative
2:30
komfort
original
sanct
▁matte
empêche
▁jucător
▁attentive
▁recunoscut
▁Brush
▁consommateur
érence
typical
strategie
Effekt
▁Alcohol
oji
▁ruler
▁Norwegian
▁PlayStation
▁Hook
▁viewpoint
THER
420
Consequently
▁entschieden
▁Trag
▁Dawn
▁fuss
*****
▁Bullet
CAM
▁wonderfully
▁parlamentar
▁geometric
talement
/2018
▁oversight
kindly
therm
▁treaba
▁Trim
▁intelege
cino
▁straw
Tru
▁Television
Trader
▁Passion
rescu
Nicol
luj
▁mijloace
▁Removal
▁1944
▁shortcut
▁Fett
largement
▁altern
▁cleansing
▁Qatar
▁Ceci
▁weave
schmerz
▁dots
Télécharger
▁Conduct
bekannten
▁lungime
▁Ferrari
▁totusi
▁Anniversary
▁wilderness
▁Christoph
▁Nikon
▁Digi
▁Blumen
▁altul
▁Parish
czy
▁temper
▁Powder
▁Arnold
capacitatea
nderungen
▁utilization
99%
▁Fear
JE
▁Simpson
▁Podcast
▁Cardinal
▁Distribution
▁Drawing
▁tint
▁hran
▁Slide
▁Vertrauen
cloth
▁redirect
126
▁constituie
Mai
▁idol
▁tehnice
dip
▁soldier
▁Ordin
wobe
▁Brent
▁Sudan
6000
turism
▁Rocky
naming
▁entrepreneurial
hearted
ayne
▁hover
▁skull
▁tribal
▁crafting
bewertungen
▁decizii
obwohl
▁compromised
▁quelqu
▁Hilton
▁maturity
gelesen
▁harbor
▁maple
▁développ
▁Nobody
équipement
121
140
▁artistes
▁depune
▁erase
▁erzählt
▁Hyundai
▁impairment
▁conving
chasing
▁Claus
▁adaptée
▁Raz
rugs
▁urme
Nonetheless
▁Cemetery
umps
ACA
▁perioade
▁slogan
▁downward
eidig
RAC
▁inaugur
се
▁înțeleg
▁hopeful
▁customization
▁prisoners
▁Rau
▁Pitt
ături
▁metabolic
▁Zach
▁umfassende
▁révél
131
ismului
▁Sac
efficacité
cruci
bisschen
▁Oster
lowered
▁Ausland
▁Pub
▁Marseille
▁Charter
howcasing
risti
▁thermostat
▁Clin
▁entsteht
Choosing
▁Schmerz
▁Till
▁Polo
▁proceduri
▁Believe
▁playful
▁verändert
▁pairing
MAG
leiste
▁testimonial
▁Economy
▁Wechsel
wirkung
▁exceeded
South
create
▁davantage
Log
▁irregular
VB
▁Rö
▁intreb
▁penser
▁déclaré
▁Tommy
2,500
▁Uganda
contacting
▁apreciat
▁beginnen
▁Gain
Office
ermittlung
▁Admission
▁Earl
▁Aviation
▁apologize
▁enclosure
▁Lack
wife
▁rotating
▁hergestellt
▁repository
TK
▁lectur
▁reflex
▁Harmon
▁vrem
▁Strange
▁champagne
▁oscil
sensitive
▁Sheriff
PRES
▁vow
▁dioxide
ен
▁corpului
▁prevăzut
India
hausse
▁clienți
▁entour
▁Sharp
▁teatru
▁Grow
▁caravan
▁sieben
▁cunosc
Bereichen
▁Benutzer
▁Ethiopia
▁Physics
preserving
ал
▁aerial
▁nouvel
▁stamped
▁inaugural
▁medicinal
Quite
accumulated
register
▁Falcon
▁boiling
▁advertised
collect
albeit
▁Organis
luate
▁préféré
▁frumoasa
▁truc
▁Fä
▁dome
Mobile
▁redeem
IONS
▁țări
▁singular
▁livestock
▁démont
clés
music
▁explicat
▁Fellowship
▁electrode
129
▁Rescue
▁Rocket
OSE
▁Sacramento
▁Haiti
▁Erwachsene
▁Terminal
URI
▁Rural
▁achizitiona
▁identifiable
▁gekauft
▁improper
lashes
vorbim
▁hinder
▁Grenz
Nav
alimentation
▁Cottage
▁nötig
▁cuprinde
session
▁Separat
▁besuchen
▁noodles
▁ballet
WG
▁Duty
▁porc
▁booster
galerie
▁Lance
▁déplac
▁rugby
▁upholstery
▁bustl
▁Dealer
▁genome
▁citizenship
rora
ARK
▁Semi
▁Improvement
▁negru
▁Bruxelles
flüge
▁Technique
▁Obst
2020
▁gek
▁drepturi
▁Logan
gelöst
▁grandparents
phin
▁dwell
▁Nobel
dial
▁spontan
advancing
starring
▁astea
igueur
▁Ancient
filter
Doar
▁Workers
Certainly
▁commencé
▁zipper
▁Selection
▁succ
headed
RIA
▁papa
▁profesionale
▁Zeichen
▁artisans
▁Geist
practic
▁ministrul
viens
prezintă
Integrated
▁rooftop
▁successor
OTO
liés
▁Diver
Specifically
▁calibr
KK
▁défense
▁english
verbrauch
▁attire
▁Recipe
équilibre
accumul
▁financement
rij
▁prince
▁préparer
surviving
operation
▁judet
▁Verantwortung
▁Vinyl
DEN
▁Tail
yearly
▁comisi
lava
▁succession
▁Whisk
▁precizat
▁unmittelbar
ICH
▁atteint
▁hometown
▁Zip
▁Weekly
▁crashes
▁Turbo
▁susține
▁Venus
▁finalement
rewarded
▁principau
▁régional
▁1958
▁Musical
▁stylist
cetate
gorge
▁espresso
überall
▁NHL
▁Dock
▁mosquito
▁forthcoming
▁Visitors
kro
_______
▁STEM
9.5
accompagne
▁Trick
▁endorsement
▁amplifier
▁malicious
▁roam
▁kennt
Connor
▁dysfunction
▁zuverlässig
▁corpul
▁boule
otti
440
▁mimic
farben
▁Wagner
Kom
▁miteinander
▁String
▁Ellis
▁Perth
▁temperatura
umbling
▁Medizin
▁KY
apei
counter
strich
▁Între
▁Cliff
▁foreclosure
................
Clearly
AJ
ndro
▁Arsenal
▁Recherche
Guests
▁besucht
wissen
fekt
hottest
▁Tomorrow
▁Signature
127
▁competence
Einige
patented
▁Exhibition
▁verbessern
▁Garcia
▁inquire
coping
▁linguri
▁trivia
▁începutul
▁parteneriat
tagen
▁engagé
▁chalk
▁fashionable
0.8
▁sticker
▁desperately
höhe
▁fericire
évaluation
▁Divide
▁indulge
fett
▁communal
▁mindful
dauert
▁veille
▁vér
▁Baseball
▁succeeded
▁Terrasse
irgend
▁Munich
weisung
metre
▁Raymond
▁chute
▁Accounting
▁pantry
▁underwater
ARI
lowed
numbered
REN
▁industriel
wäh
kenntnis
▁govern
strained
▁rythme
ин
▁burner
▁zählt
▁verte
▁Catalog
▁Bruno
0.7
▁litig
▁greet
▁stool
gression
▁Klassen
▁neon
▁Tall
▁satin
▁Bend
▁soluţi
▁styl
▁Siri
▁Sanders
▁spike
pinion
▁purta
CARE
▁creştere
▁fry
▁Schweizer
durchschnittlich
celaşi
▁deceased
▁Nerv
2-2
▁Stahl
▁workload
erhielt
▁hypothesis
bib
▁ţară
vaut
prehensi
▁Offering
▁dislike
▁firewall
mania
195
▁Champ
▁philosophical
länge
advisable
negotiating
Providing
▁1959
▁spyware
sharing
▁prévoi
▁jaune
schoss
▁obține
▁attraktiv
gemeinschaft
BV
Top
▁Sharon
bok
▁résist
Napoca
▁Uncategorized
▁trustee
▁remise
▁aştept
▁allergic
èvre
LAR
1.9
▁outbreak
▁trocken
▁laughter
▁Attend
jung
racking
ORS
▁rasp
VF
▁Tamil
124
▁Fiber
▁launches
Post
▁bucks
▁Nicholas
▁cărți
emper
Point
fraction
▁BIG
▁lancer
EVER
trend
▁remerci
▁prevalent
370
▁bestellen
Buying
▁Aufbau
▁opini
▁regiune
▁martial
LK
▁Feuerwehr
screened
Blue
▁analize
▁lure
▁internally
father
▁diplomatic
▁Activity
▁cliqu
▁adequately
▁Elena
▁Citizens
▁Länge
▁respectful
▁zuständig
▁réception
▁headset
▁awhile
▁speculation
▁WhatsApp
▁tulbur
▁voluntar
▁Studium
▁protector
▁Wrap
staat
▁judgement
unauthorized
Rank
pră
▁Paw
▁relev
▁arbor
stretches
nook
▁Tunis
▁shocking
▁oppress
10.1
▁ERP
wolle
▁Catch
Plus
Market
scribed
▁décoration
▁chanson
▁Midwest
▁Spencer
▁societate
curated
▁canopy
ат
Sig
▁witch
envoyer
▁$1,000
▁peripheral
nnouncing
perfect
▁warten
ELI
▁recap
dün
▁Spre
2005
▁réparation
▁extraordinar
existence
oanele
▁reprezentant
▁attacker
▁Berliner
experience
▁Monde
intervention
▁Einstellung
▁Valentin
▁zonă
occupant
▁mobilis
metall
evangeli
Adding
▁Roland
ENCE
▁Insul
tellement
▁Blogger
▁prote
▁Minimum
▁termic
▁Sachen
▁Maschinen
▁Dragnea
▁overtime
calorie
▁jene
▁Satan
▁currencies
▁echipamente
▁forgiveness
▁Pause
▁Witt
STOR
▁actuelle
▁Ard
▁Constitu
ghan
Make
▁garne
▁Hitler
▁rubbish
6.0
▁Giving
▁persever
wirk
liegenden
▁morceau
atty
▁Quebec
harmonie
Nummer
▁splendid
▁halfway
▁periodically
▁Ländern
▁AAA
▁Frost
▁heroin
▁bucurie
▁Pradesh
zusetzen
raising
▁furniz
▁convi
pictured
▁inadequate
▁aprobat
▁exercising
▁faisai
▁prosecution
380
▁Potential
▁Magi
From
batterie
▁poisson
▁Probe
▁pastel
▁tracked
▁advertisers
adevar
ит
▁Herren
EAM
▁scooter
requesting
dynamis
▁dahin
▁tweak
▁hail
▁întotdeauna
▁Publikum
▁panoramic
▁PRE
▁thrill
Open
▁Layer
▁Bosch
hull
▁născut
tausch
▁autoturism
▁crank
CLE
▁Frederick
mog
behalten
▁aunt
▁Triple
▁Ark
AUD
▁Candy
tama
▁Evaluation
▁Memphis
▁stellar
▁fabricat
▁terminat
▁domnul
▁keynote
▁dentistry
rift
▁bilan
2.6
undergoing
▁pseudo
▁maşin
▁munte
▁VW
▁Rab
▁sustine
▁Bedingungen
▁învăţ
▁pyramid
HEN
▁citrus
Code
▁Beginning
▁discourse
▁miercuri
▁producător
▁analys
▁Evan
138
▁târziu
▁relocation
decizia
tollen
TRO
▁runway
illet
▁serveur
bezogen
▁believers
determined
▁reinforced
▁wedge
methyl
MES
vpn
▁consta
▁vizitat
modul
▁routing
tempted
URS
apprentissage
▁Hungary
Previously
▁translator
▁resonate
201
3-0
▁reunion
▁palate
0.4
reheat
Roo
200,000
Bro
▁estimation
schneiden
▁Inspired
▁lottery
▁Friedrich
FIT
0.6
▁dagegen
▁Reb
▁Eigenschaften
▁molding
▁Harper
verwaltung
▁Schlüssel
▁desfasura
▁rencontrer
▁negoci
▁Leading
▁necesita
▁biking
▁jointly
▁crush
Vol
▁ebay
▁Shri
▁AMD
FG
Argentin
▁incercat
▁tidy
▁provoqu
▁Written
▁Kooperation
▁scripture
▁Pflicht
ficial
vremea
▁Growing
▁redesign
▁obstacle
▁rugam
▁SPD
165
fiz
▁startet
▁Principle
▁abdominal
▁podium
duty
bonne
▁Serbia
▁brunch
▁Personne
▁Idea
forementioned
▁chassis
gebühr
ucun
▁Maz
1-4
kleid
▁Volvo
brechen
▁homepage
fuz
▁abgeschlossen
▁gelungen
▁booklet
▁Ukrainian
▁Melissa
CENT
▁intégré
weighing
▁crumbl
▁bunk
krieg
▁freshman
alaya
Avem
▁Kne
▁upstairs
AIL
țul
▁Lecture
▁entdecken
▁GMT
▁Leitung
▁inclined
▁skillet
FN
▁Perform
shift
recognizing
▁concise
▁obsessed
▁removable
▁Relax
delegates
▁expedi
▁Schä
iete
▁reciproc
▁neutr
lactic
▁Nah
scene
▁Helm
▁Bewerbung
▁Cassi
▁Gelegenheit
▁reflective
▁încredere
▁cigarettes
▁Zusätzlich
▁intercept
▁Finn
▁ignor
gian
BRA
leader
nius
▁skies
▁nunta
▁grec
arranging
wartet
▁kostet
▁Entre
Mag
▁radiator
übrigens
Internet
▁connexion
▁prolonged
▁capabil
▁feeder
Initially
Green
▁passiert
▁courtyard
▁judeţ
▁Coalition
▁atmospheric
▁velocity
▁Frühstück
vacancies
unified
▁Ahmed
poured
▁Mikro
▁Klar
kommt
seated
musik
▁stimulation
▁solicitat
▁politically
restoring
▁Rag
▁officielle
▁Annie
▁tourne
▁Joel
blieben
▁repayment
▁Strategi
▁prietenii
▁Montgomery
▁résidence
▁sunglasses
▁1956
MEN
pouvant
375
directed
▁grinder
rträge
▁nickel
▁Maintain
▁Holmes
▁obtinut
▁walnut
▁consultancy
cooled
▁Brig
▁Produc
street
▁Einfach
North
▁PET
▁Président
▁produsului
literatur
133
▁recours
▁verpflichtet
▁Wur
▁psiholog
Veg
▁hype
augmenter
▁Welsh
mounted
▁Wann
▁gezeigt
▁memo
veterinary
▁Olympia
▁handsome
yama
studio
sozial
▁reap
▁didactic
▁Cookie
▁cooper
▁discern
▁Ubuntu
domain
▁plasa
hong
▁Freiheit
▁Gateway
▁poke
▁niedrig
▁corrected
▁predator
QA
Physio
MAS
▁sanctuary
▁aferent
▁perdre
▁recherch
ready
without
▁locuitori
▁Memo
▁Laden
danken
▁CNC
▁jealous
▁Background
▁Marx
▁Heli
▁osteo
▁rassembl
▁altceva
▁beschäftigt
▁accru
üft
▁sprout
endorf
▁specialitate
éanmoins
▁poign
▁mânca
▁stretched
fensiv
▁Auction
hints
▁typo
▁Rare
▁interruption
▁Mean
privileged
▁purtat
studie
offres
▁flap
▁rhetoric
▁snapshot
▁Conservative
▁taie
Game
▁naissance
Prof
qualified
▁suppression
▁răspunde
▁1/3
▁lieben
ù
america
▁Mum
▁Researchers
quip
▁fenomen
stools
▁commodity
▁rejuvenat
▁ausgezeichnet
▁păcate
3.6
zwei
accounted
▁Cycle
politischen
Normally
▁transcend
▁Classes
▁vene
protein
formulaire
▁endurance
▁Census
▁census
▁conțin
▁multinational
▁consomm
▁Porter
▁marvel
▁probable
dependable
▁crore
▁6:30
▁Bradley
molecule
inclusiv
▁privilégi
▁cerere
ouille
▁âgé
▁ghid
▁Controller
▁incredere
▁hostel
wissenschaft
▁cooperate
ки
▁Küchen
▁BIO
▁deliveries
▁urmări
▁überzeugen
Roofing
▁Adel
▁navy
▁cider
▁dulce
▁inspirat
allez
HH
▁Danish
CDC
▁Milch
▁Hockey
▁Smooth
▁FIFA
▁Devon
chung
▁villain
▁musée
tiennent
chou
kopf
printed
▁Depression
▁opioid
nomie
▁footwear
▁Cause
SEL
▁Roller
▁einzigartige
desea
▁nasty
formulated
breaker
▁goodies
▁sandy
method
▁Maple
gefragt
▁decreasing
ceşti
▁DUI
▁pierdere
▁brushes
▁Fully
filtered
ruins
Save
sweeping
PCR
▁folded
▁urca
▁clic
▁spécialiste
▁durfte
tuși
▁diligent
▁verdict
▁chaise
▁cleanup
▁Guitar
▁Dip
vru
▁cogn
something
hidr
ENG
Paul
▁reboot
savvy
▁Macron
▁Kino
232
▁gravit
ANC
▁petrecut
▁signage
odia
▁GRA
▁alegeril
leger
▁medicamente
pentru
▁collectif
▁Sohn
205
▁Reach
RAM
3.4
▁bleach
▁diligence
▁MORE
▁Critical
▁singură
▁adversar
▁Buzz
▁demeure
▁nephew
▁Boom
▁shining
▁sponge
liest
rseits
▁capita
esthesia
500,000
▁Pressure
ifikation
▁acceleration
▁Pfarr
▁imobil
▁pericol
▁flock
▁Scholar
▁Fusion
▁revolve
Plugin
▁Ruf
▁tehnici
voice
▁anomal
▁gefallen
▁Wyoming
▁9:00
packed
▁Zimbabwe
▁glücklich
ethanol
▁effektiv
▁saptamani
▁umfasst
▁Werbung
▁undermine
▁Lego
▁Rac
educating
leiten
derma
hängen
Lumin
▁PNL
▁volcano
▁Anfrage
▁resp
leigh
▁addict
WORK
▁FY
▁maneuver
flächen
zweck
tolerant
Davidson
▁meteor
▁Stephanie
▁plafon
technischen
unused
▁voulai
▁fehlt
möglichen
▁Twenty
composing
▁rebate
Italie
▁goodbye
wild
▁lancé
▁wunderschöne
▁Frontier
▁murit
▁scump
OVER
▁meme
Super
▁Crack
rennen
▁interessiert
▁relaţi
▁factories
▁[...]
▁vizite
▁erfolgen
▁Hosting
▁localitate
▁chasse
▁Meadow
▁expansive
hov
Phil
illian
▁manipulate
informationen
▁profesionist
risen
frem
Act
supervised
▁capul
▁Craiova
▁victoire
▁guitarist
▁identific
democrat
Authentic
▁Autumn
▁bodi
April
▁Burger
▁BEST
▁torrent
UV
▁renal
founded
203
▁Flooring
▁kilogram
▁garantiert
▁fulfil
303
▁schafft
▁butterfly
▁Stuart
▁Versuch
▁liking
▁chercher
▁wrapping
schrieb
▁abuz
▁maîtrise
EQ
▁Erinnerung
▁bridal
Rock
▁copied
Met
▁incep
▁sinus
▁Felix
▁Deluxe
▁GPU
Sie
lowering
▁Trotz
333
withstand
▁Aufenthalt
▁unhealthy
▁urbain
▁LOL
▁Ballet
▁Decoration
weist
▁Residence
▁Leeds
▁Genau
Imagin
▁suspicion
▁pêche
▁Soccer
▁protectie
ATS
stocked
▁gymnas
ASP
▁Independence
▁Wizard
▁nitrogen
amerikanische
▁Indianapolis
catches
stria
schätze
▁Räume
▁Interesting
bürger
sweet
Identify
EEN
▁£3
interacting
NYSE
▁Dynamics
▁modificări
▁Kumar
chette
▁presiune
arni
▁vielfältig
KC
▁Cuisine
▁australia
▁încet
▁caracteristic
▁cookbook
▁douleur
AVI
artikel
feta
▁fréquent
▁Prophet
▁dépense
▁Smile
▁lawmakers
▁Kollegen
▁Pir
serez
▁consumator
▁playlist
▁envisage
swept
▁Grim
▁widow
authorised
▁(...)
▁photographic
▁libertate
▁principalement
umming
▁Montréal
▁compilation
▁erlaubt
▁biblical
volume
5-7
▁Versch
▁Shark
ologne
4.4
decken
▁frequencies
▁inferior
visible
▁educator
▁soziale
▁billet
folosirea
▁aufgenommen
▁Thread
registering
▁Loop
innovation
▁elimination
136
▁fluctu
▁Mercury
▁bouche
▁hurdle
▁Bennett
STI
▁théâtre
▁confortable
▁Automobil
▁Donna
▁foyer
▁hollow
▁règlement
effi
▁sediment
▁Mä
▁faint
feti
▁Concord
▁Ladies
▁pregatit
▁Ensemble
▁Ingredient
▁Respond
▁impaired
▁Feedback
▁ultrasound
▁Guvernului
▁Unterricht
▁prosecut
spend
▁capitol
USD
observing
▁effortlessly
▁Setting
▁spontaneous
▁LEGO
initiative
▁Sak
Interestingly
▁Yale
▁größer
RIC
▁distracted
drafted
▁Brenda
monopol
städt
▁altar
▁Hannover
▁Spiritual
▁thriller
▁Schneider
▁accumulate
▁mediului
▁Mathematics
▁paradox
▁Sham
▁SITE
▁echipei
▁staircase
▁întrebări
Commerce
▁selfie
▁Pocket
▁niemand
Tool
igma
utilisant
▁negatively
Secondly
▁ROI
Arch
▁continuity
▁Prayer
inverse
▁Himmel
prinz
wichtigen
étage
summe
▁Zeitung
▁realization
▁influent
▁Valid
▁publicity
▁vertreten
▁Shoes
▁Diabetes
▁anticipation
▁Blank
asked
Power
arrelage
▁appraisal
▁harassment
Anzeige
liners
Firstly
transferring
▁Diane
▁1/2"
▁adrenal
▁Prague
insertion
▁Fahrer
▁divin
▁douche
▁meticulous
▁IEEE
▁Rabatt
Runner
▁Leder
project
▁Split
Gold
5.00
iola
standardized
ordination
▁Egal
▁ruhig
▁judiciar
▁Nowadays
▁whistle
▁superhero
▁PowerPoint
flop
olph
▁pallet
posons
▁Listing
Tag
introductory
▁Profil
symmetric
▁aisle
▁ajouté
opathy
prezentate
▁hurry
Auth
▁Homepage
ashes
▁inklusive
populated
▁nein
▁syndicat
▁développé
▁Domestic
essay
Atelier
▁proceeding
▁SAS
task
▁blackjack
Key
thérapie
▁Cohen
Direct
▁Estimat
élève
cind
▁prezenț
▁notorious
climbed
▁flexibil
▁entlang
longed
▁elbow
BH
▁Radu
▁lonely
ALA
Variante
▁Influen
▁Budapest
▁Gemüse
▁continental
ippo
▁Affordable
▁niece
oscopic
▁Grid
sliced
▁voici
aveam
▁Lars
APA
▁particulière
sorb
▁1955
▁solutii
loch
▁summon
wurf
▁protecți
2001
▁sophomore
▁Schwerpunkt
▁diplomat
▁artistique
▁accueille
Disp
inherited
▁COMP
▁envoyé
▁tuning
▁entspricht
▁exerc
▁accessoires
▁Automat
importance
▁travellers
seiten
▁slider
effect
▁siding
▁Crit
▁sportif
▁Accessories
▁Anteil
▁limbi
▁vendre
borg
▁Deposit
▁Hö
employé
▁Bangalore
▁itinerary
▁Deliver
dik
▁advent
▁Turk
▁Nico
organizarea
▁remport
▁tribunal
▁Rusia
glazed
▁destiné
304
album
▁junction
▁Fleet
venant
▁buddy
▁neglected
▁Mask
▁testament
▁Basil
masă
▁racist
640
▁Standing
▁MUST
situation
▁informiert
ABA
▁Timothy
▁generosity
▁erscheint
▁verarbeitet
▁burial
▁limestone
▁1953
▁Lucr
small
aveau
versiune
▁inkl
▁Minneapolis
Spiel
▁encode
▁beforehand
▁Vital
▁socialist
inho
▁chapel
▁Monitoring
▁quotidienne
cloud
▁desfăşur
▁1952
▁Rü
▁Sigma
134
Sullivan
▁Bevölkerung
▁sufficiently
Check
rnie
contamin
▁gewonnen
▁bugetul
▁mustard
132
0.9
▁tratat
▁dilemma
▁versatility
▁clutter
▁Musk
▁Beide
hurst
atsu
absence
rebounds
6.1
Dia
▁siguranță
▁Blade
▁disrupt
▁visiteurs
tested
▁Lup
▁Rouge
▁asbestos
▁moisturize
▁acknowledg
▁procent
▁swear
▁911
präsent
▁cohort
▁intimid
JS
îm
▁Kunststoff
rison
▁praf
▁convient
▁partenaire
▁Verantwortlich
▁semiconductor
▁kürz
▁Bottom
▁tratamentul
Source
authored
robo
▁turf
▁liebe
▁Fotografi
Big
▁fireworks
▁presă
▁conceal
▁originated
▁biciclet
acești
▁mortar
▁Wunder
ionist
KM
▁Marion
produkte
▁Sprint
▁Nachde
▁verfüge
Marea
▁compressor
Arm
Auf
▁Polyester
▁Sheffield
illiard
▁misleading
multi
ripped
▁Cosmetic
▁Regal
▁authenticity
▁customizable
▁bathtub
▁Average
▁Muster
290
▁Ersatz
▁Might
published
▁Interpret
▁încep
▁proto
▁disque
▁Palestine
Over
▁verbessert
▁liefern
▁Handlung
▁Handels
▁eater
▁$40
illard
▁apariti
▁gag
▁chimic
▁Guru
▁Toilet
▁Tochter
▁Aurora
contro
▁GOP
Provence
▁Frieden
ăci
portée
▁upright
▁Physician
▁juridique
▁territorial
▁kindergarten
aéroport
▁whisper
▁capacities
dichte
▁Grenzen
▁Riv
épreuve
▁Scheme
mesures
▁Einfluss
appui
▁apuc
▁radiat
▁allergy
▁spear
▁Luxembourg
▁Registered
▁Shape
genie
nsonsten
▁Symposium
forderung
▁personalizat
▁ştiu
blatt
▁geometry
▁8:30
▁Fahrrad
After
▁ventilat
▁nylon
▁verkauft
öß
▁Kath
▁Nuclear
▁Verizon
▁spokesperson
▁vietii
▁prescri
ру
6.2
▁spațiu
▁solvent
,000,000
reuen
plast
▁Activities
▁domni
▁trophy
▁saddle
▁renovat
▁bumper
▁penny
omato
AQ
kunst
hydrat
minder
trecerea
brush
TEC
Please
hydrated
ICAL
trauen
9,000
▁2030
▁Chennai
▁empirical
▁Subscribe
▁vorgestellt
▁Springfield
▁continuu
208
▁Bearing
2003
cheta
▁empathy
▁Alert
▁recreate
PJ
Name
▁Mouse
▁disturbing
▁leichter
▁cruel
▁detective
▁reimbursement
▁Gemeinschaft
▁adolescents
▁Reality
▁Stockholm
▁Gründen
▁Reflect
▁Palmer
▁treac
▁tentative
▁surrender
▁broadly
▁județ
▁Thu
wärts
▁crește
▁déplacement
blanc
▁£5
▁confidentiality
veraging
unité
clar
rigg
honneur
▁adventurous
▁Nutzen
▁Kabel
empowering
verhalten
▁prevail
mashed
▁1947
function
niveaux
▁territories
▁Permanent
▁christmas
arguing
zukünftig
▁Eindruck
personalised
▁vecin
▁Affiliate
▁Silk
▁Tub
▁remont
▁sauber
gehörig
Maritime
▁Bö
▁1957
▁unparalleled
▁fulfillment
▁collage
fenders
▁neige
▁gamers
tefan
▁wifi
▁leisten
▁Verbesserung
▁composant
▁LORD
arrive
▁conquer
▁lentil
▁Sprech
▁substitution
.05.
FORM
cădere
▁canyon
▁capacitate
▁menace
▁Antique
▁dizaine
▁Saturn
▁gastro
▁Vand
▁africa
▁hackers
▁Bailey
ouette
hoch
étudiant
▁1600
utiliz
reinigung
▁mileage
▁consacré
▁Norfolk
stacked
anbieter
▁gewünschte
▁silicon
Ensuite
▁vendu
▁viteza
▁evaluare
▁contient
▁Viagra
▁circumstance
walker
▁Aluminium
ço
▁Kli
▁deliberately
▁gamble
▁nourri
▁sealing
▁Atmosphäre
▁erschien
▁brightness
autonomie
▁propel
▁Infrastructure
▁război
▁jelly
scalable
regal
▁sarcini
▁Dienstag
▁Receive
▁mango
▁compétition
▁Monument
▁mast
▁instructed
▁aventur
139
▁Parmi
confined
acious
▁simptome
▁Fischer
störung
▁bilateral
preşedintele
accueillir
▁Schmidt
litis
WL
▁Rise
▁streamline
sozialen
▁Emirates
▁encrypted
▁unfamiliar
established
▁Tätigkeit
▁unaware
2:00
macher
NSA
▁rutier
▁Trent
▁sickness
▁advert
▁Kranken
▁Sandra
▁Recreation
▁Evidence
▁Immigration
▁carriage
▁justified
▁veche
PGA
▁Carmen
▁Faites
▁erfüllt
▁voilà
▁împlin
deposited
▁decisiv
CSA
pathy
▁erweitert
▁liquor
▁resilient
▁walmart
▁fencing
▁dépasse
KT
▁fries
vadă
▁Spania
▁complètement
▁lucrari
▁Lieb
leistungen
198
▁Schnell
▁radius
▁beneficiaries
▁northwest
▁#4
▁embryo
▁ditch
▁Seriously
oppel
▁stalk
écriture
512
wiesen
▁Consum
▁lună
▁lantern
▁italian
▁achiziți
▁catalyst
▁Arbeitgeber
▁researched
▁drastically
versammlung
410
▁impus
▁interchange
▁pharmacie
Live
dents
▁charcoal
▁odihn
▁pistol
▁complaining
manager
themed
▁Chang
▁rookie
Great
▁smoker
▁Container
▁bancaire
▁Actual
füllen
forum
bleib
▁combi
smoked
difficultés
▁tactical
▁sichtbar
▁dreptate
ERT
▁Pond
▁Holly
erfolg
▁Nordic
évènement
embracing
▁Maximum
▁défend
▁fruct
▁Conditioning
LG
exigence
amide
▁darunter
▁EVERY
▁comparat
boosting
▁Hawaiian
▁Geburt
deci
▁Apollo
▁schützen
tragere
Online
▁neural
▁lucrez
▁phenomenal
▁Height
coordinating
geschnitten
auront
▁administer
▁contend
▁crispy
chuck
▁Condition
gestaltung
▁Blvd
▁subjective
▁événements
▁Jenny
▁cumpăra
constructing
▁instructional
▁sterling
scrise
▁Boulevard
pipe
▁Pride
▁Kau
▁overhaul
▁Recruitment
▁thrilling
living
▁rămân
▁MOD
▁Newport
▁infectious
6-3
▁Apache
▁dependence
nutzung
praised
▁craving
▁cramp
▁mancare
▁entdeckt
▁Pioneer
▁Adelaide
2.0
168
▁Decorating
▁unpleasant
▁déclaration
▁Grafik
5-2
căci
▁invade
▁internaţional
▁fraudulent
▁crestere
ografic
plină
sunteti
/04
▁admis
▁mediation
ICC
roș
▁Aroma
1:00
gasesc
▁Defence
▁dictionary
▁Batterie
▁gesunde
146
▁mortal
▁Flughafen
hhh
▁novice
▁Develop
▁accidental
Muzeul
▁Jupiter
supposedly
energy
▁montrer
recalled
Press
▁postcard
target
▁vêtements
▁particle
professional
▁1949
yah
▁Spiegel
▁Jeffrey
fahrzeug
▁Plug
▁violin
▁condemn
▁conducere
▁Chevrolet
▁conceput
▁Merri
judging
embraced
▁Compact
▁château
etch
bedroom
People
25,000
ocyte
▁Lenovo
▁Hampton
5.2
▁progres
hoc
▁complementary
turned
mangel
▁Drew
épisode
▁Versorgung
▁ausdrücklich
ciune
▁sfârșit
Agricultural
▁caffeine
▁emergencies
▁unhappy
(7)
▁inlocui
▁Rochester
183
niz
tasche
▁Salle
cît
▁Singer
▁economically
▁ieși
▁façade
Ohne
▁edible
Rob
▁(2014)
▁Zar
▁obey
Pack
▁Omni
▁Gilbert
▁Vlad
▁pauvre
▁secular
Center
▁Prospect
▁Noah
▁Interactive
▁centaine
▁cerebral
▁Novel
▁Käufer
werfen
▁reluctant
ес
Look
Erkrankung
▁cucumber
/2017
▁flank
opportunité
zugleich
RAT
▁avantages
▁außer
GV
▁Continental
▁affiliation
▁ursprünglich
▁hardship
âme
▁hallway
▁afară
western
▁Jacket
▁culturelle
▁glaci
metoda
▁clerk
▁ordinance
▁Initial
waking
▁Secondary
▁Solomon
glomer
SYS
▁Florin
ffentlich
▁Printer
▁dimineata
▁stripes
plugged
öhl
infused
▁Rubber
paved
▁Devi
▁subway
▁gases
▁reguli
▁Rebel
▁destructive
▁oferind
9001
CRA
why
sensul
guter
Empfehlung
▁convertible
▁predominantly
▁Mentor
Practic
▁echipă
onsite
▁zunehmend
▁Harbour
▁pineapple
▁gasoline
▁Jaguar
kno
▁heap
▁fictional
fiinta
▁Amber
▁Exclusive
▁Pharmaceutical
▁unterscheide
▁1942
▁Ceiling
developed
▁consacr
▁Membr
erton
habitation
▁longevity
▁Starbucks
▁poat
▁commissioner
pedia
popped
versorgung
▁Aktivitäten
▁Betreuung
▁afacere
▁Mechanical
▁Leiter
▁scaling
▁Slim
▁temperaturi
ACH
▁jährlich
▁photographie
▁préalable
▁părinți
▁Farmers
▁Printable
Früh
approved
otro
▁veneer
▁Warriors
▁Approach
Share
▁buds
▁Într
glichen
▁anbieten
MET
amélioration
ländische
nsgesamt
einiger
▁Förderung
destroying
▁accreditation
reminiscent
▁retriev
▁Flü
▁Monsieur
German
Orice
künftig
▁vorbi
▁intentionally
▁îngrij
▁laughed
▁Fiction
▁inteligent
▁Translation
greete
▁énergétique
uncovered
▁évidemment
▁Vietnamese
▁Libya
▁Trailer
▁Wohl
▁Congo
▁freut
zauber
▁Pân
▁mentine
▁welding
▁Mircea
▁optimism
VEL
oilea
▁thereafter
▁André
forschung
running
▁hostile
Homme
▁Satellite
▁collagen
▁concedi
▁produziert
▁virgin
frant
▁teammates
▁faceti
▁Restoration
▁detached
▁Instructor
montag
▁borrowing
▁Retro
▁behandelt
▁Aussage
▁snorkel
▁Proceedings
▁Judy
▁Wendy
artă
▁Vergangenheit
▁Gegner
▁ulcer
wirksam
▁închis
▁emission
ulescu
▁bancar
compromising
▁Priest
▁Progress
▁punish
▁Afin
▁Bog
lunii
▁ressembl
▁Creation
effet
Versicherung
médias
▁Kritik
idia
▁Wasch
UAL
Approximately
izari
▁Dortmund
▁contul
▁Airways
sicherung
échelle
ADD
DIA
kabel
Media
ampli
▁quarry
▁acoper
halter
▁solicitor
phosphat
▁drown
congratulat
▁uneven
▁rupe
▁heureux
caractéristiques
60,000
ambigu
224
dov
▁Naturally
▁Ernst
Camp
▁Worldwide
▁antrenament
▁jocul
▁broccoli
▁fascinated
▁Abbey
▁aquarium
HAN
chaffung
137
rumors
reliance
▁vaccination
responsabilitate
▁legislati
ATT
206
▁miere
▁rezultatul
părea
zuführen
▁Kompetenz
▁nickname
pilot
▁ninth
▁Tyr
▁misuse
▁SUP
▁Attack
Smart
▁Philosoph
▁Alege
▁femeile
▁Heating
▁Cricket
▁scholar
Model
▁stimulating
▁industrielle
▁phenomena
▁Nahrung
▁Conditioner
führ
▁révolution
plastic
▁approximate
▁dienen
▁obsession
▁rectangular
Allemagne
▁Tanzania
border
▁crashed
visor
▁autorizat
▁Champagne
längst
▁realities
▁Keyword
▁GUI
▁simplified
▁Rack
▁Zahlen
growth
▁rehearsal
▁Epic
▁réussite
▁politician
▁emoți
▁delegation
▁со
oversized
▁Motto
1860
▁defective
brewing
linguistic
▁Hopkins
▁(2012)
crease
▁Versicherungs
▁Noble
▁Bekannt
▁vorstellen
▁suburban
DAC
▁scatter
▁Artificial
▁reactor
▁modelling
▁Holder
athon
147
▁stagn
ARY
Space
▁Gibson
▁Investigator
▁1914
▁Muhammad
▁shove
▁erklären
▁abdomen
▁Mazda
▁hemo
National
starken
▁Cyprus
▁tread
▁sweetness
stunden
▁couverture
▁Successful
▁oublier
▁esential
estival
gnac
▁Basement
presumably
▁mourn
armée
148
▁residue
▁metalic
▁Zell
Build
▁prevalence
▁wrestling
▁ascuns
Sacred
Tec
▁Kindergarten
bindung
▁ritm
▁triste
▁introdus
/2016
▁română
▁bibli
▁cigar
Rie
▁intentional
▁cuprins
remarkably
▁printemps
▁declining
Magazin
▁săptămână
▁vérifier
▁Speise
▁reteta
heed
▁Compliance
▁embroidery
cried
▁(„
▁heck
▁sadness
▁impulse
ATH
▁lavender
uiesc
▁Disorder
stroke
▁piaţ
ournée
▁Barnes
▁scăzut
▁équipements
OND
▁Compet
▁Bestell
▁immédiatement
aparut
▁rainfall
oreille
▁ministère
iris
dyna
drücken
▁détect
▁fonctionnalité
▁imbalance
▁unpredictable
▁literar
▁Windsor
▁Unlimited
colour
▁Portfolio
149
volution
▁folgende
▁arbitration
kicking
zügig
▁1941
▁Drake
▁ausführlich
▁chaussure
▁intestinal
▁pilgrim
▁Bark
between
disposed
▁Dylan
ств
NOR
traces
▁moindre
▁$10,000
212
wusste
▁predictable
poţi
▁Celsius
gebunden
▁Legacy
movers
▁concret
▁simpla
rechnet
▁certainty
entrepreneurship
kohl
▁curte
▁Forbes
▁Zusatz
blending
▁variat
▁galaxy
▁safari
▁municipalities
▁Drept
aufnahme
▁endorse
einrichtung
Sync
abide
brushed
▁actiune
quaint
▁volatility
▁repetitive
▁découvr
Totodat
▁românesc
▁tempting
thesis
secure
delt
▁şef
▁epidemic
▁Appliance
cearcă
▁lodging
▁photographed
geschlagen
▁Methodist
▁Transit
▁Länder
villa
▁toilette
anno
▁Aufnahme
▁Coral
pourraient
▁digestion
▁Vacation
▁Rugby
MIC
▁choc
2002
gestion
▁Zoom
essor
weighed
▁dispus
▁redemption
▁plaster
▁Quilt
▁teritoriul
ndern
▁expired
▁Tribunal
occupation
▁woodland
vieux
▁Midland
gât
électricité
▁vanzare
biologi
▁vive
▁Alarm
▁experiență
▁Loch
▁Pedro
▁detergent
language
▁sedan
▁Brady
▁compus
▁landfill
giu
beziehung
▁picior
ALI
▁Commander
EPS
▁Textil
▁industria
lox
▁eclectic
▁gracious
Uniunea
bps
▁entertained
depinde
▁daylight
▁résistance
ARN
▁unavailable
Curtea
▁pores
▁Tonight
▁datori
▁gezielt
▁rupture
▁disput
▁sonstige
▁Ordnung
▁beschrieben
▁Rainbow
▁Werkzeug
GIN
facilitating
hunt
▁Serving
Writ
requisite
▁Kerry
▁riesig
▁Healing
▁1954
▁mousse
▁Positive
embodie
▁penetrate
endorsed
▁situatia
▁Unity
142
▁farmhouse
▁Handbook
▁symbolic
pristine
moitié
▁Sessions
technisch
▁lesquel
▁electronically
▁modificat
▁adjoin
actualité
vati
VENT
▁salsa
acupunctur
▁Opportunity
▁Inspection
▁vereinbart
▁Residents
▁perennial
CHAN
Search
UTE
▁Lens
▁Banner
aménagement
▁Decision
▁ferr
▁Transformation
▁Stamm
▁Galerie
onny
▁caption
▁viitorul
▁professionelle
drepturile
ylon
Société
AIS
March
▁Rav
▁1946
accompagnement
Liviu
▁Appeal
▁sentir
▁Indigenous
▁wizard
▁collateral
▁Proof
▁prze
▁obținut
COP
▁obiect
▁isolate
▁nieder
TECH
▁Sharing
Ideally
▁naked
horaire
▁prelucrare
▁forcément
▁ESPN
▁southwest
▁Timber
kleidung
MJ
Ped
▁lymph
wärme
▁Olivia
Ziua
reihe
▁selfish
▁geography
▁etaj
▁acquis
▁rejoin
7.1
▁paix
tirer
▁clase
▁blink
▁Interface
nado
RIT
ESC
▁carving
▁articolul
▁wreath
▁propaganda
▁Pair
▁pamant
▁venituri
rtz
uddle
uille
▁embed
0.05
▁Brighton
estens
▁occupational
ем
wünsche
▁Poetry
▁visualize
Across
▁essentielle
beratung
▁Guidelines
▁Fehl
▁liberty
▁Investigation
▁sunrise
▁12:00
venind
▁lotion
conscious
logists
▁judecător
▁Ecuador
▁ambulance
▁Already
▁eröffnet
▁naval
▁imposibil
▁Merry
▁Duncan
▁léger
▁delta
▁Machinery
▁craftsmanship
▁angezeigt
▁formidable
▁Startup
venus
▁tannin
collaborating
▁abrupt
emergence
Dienstleistungen
▁liefert
engagement
▁maximise
modeled
▁crane
▁effortless
▁Buffet
8000
▁Überblick
micro
▁vergleichen
143
5.6
▁odata
▁interviu
▁poliţi
plated
Roman
▁satisfactory
▁unanimous
▁întâln
nonsense
▁HOW
prezinta
▁măsura
▁Fuji
▁Meaning
aspiring
▁Suceava
arba
pressive
▁creek
trakt
▁fluffy
▁bateau
ме
UNG
motifs
Type
perçu
singurul
▁(2011)
▁hemp
betroffenen
▁sermon
AID
3.7
▁heiß
▁bolnav
First
▁interrupt
phag
235
▁discoveries
▁Wellington
▁wechseln
▁strategically
▁iphone
geteilt
generative
▁Monroe
▁Execut
▁knitting
▁Couple
▁Shade
▁Taj
950
boiled
▁mixes
betroffene
▁continuation
▁begleitet
▁numerical
▁(2013)
▁nourish
oricar
focus
▁Crazy
▁ascend
▁vinde
roar
Vac
▁Zuschauer
izeze
▁Mindest
lingual
▁violet
▁Opfer
ARS
4.7
millennial
▁striv
▁bishop
▁Durham
opathic
Where
▁Rider
▁Reid
stumbled
deep
▁11:00
▁Essex
▁Analyst
feel
▁rave
▁Eddie
▁communiqué
[/
▁Tho
ffentlichkeit
instrument
▁metropolitan
▁experienţ
East
Compared
worn
berufliche
▁Umstände
individuellen
siehe
▁sfarsit
▁Strength
▁prejudice
▁shutdown
chatting
▁Gerne
▁Yum
▁coastline
▁headboard
▁politische
Sub
▁Henderson
▁astonishing
▁Dresden
▁strawberry
prenez
▁Monaco
▁empowered
fäl
▁creier
▁Equ
▁Selling
▁$35
konto
▁Procedure
▁reduziert
▁royalty
wyn
▁Unfall
NAT
▁grafic
▁Collective
▁Computing
▁Established
▁zest
venez
follow
▁Motivation
▁dictator
whichever
▁întâmpl
Flüchtling
EMI
404
ICK
emplacement
complete
advising
▁Administrative
▁deviation
▁experienț
lethor
▁compress
rival
reprendre
ugi
▁Invitation
▁retina
▁farther
▁fenêtre
6-7
zhou
▁Piano
▁Congrats
▁Configur
▁superficial
▁melting
▁raspunde
▁drip
östlich
189
▁Ludwig
▁keto
▁Bogdan
▁contracted
▁revive
▁cristal
▁mailbox
președintele
▁seekers
func
▁Markus
Unter
▁übertragen
▁adaptive
caster
▁geek
▁réservation
▁irritation
▁HDMI
Seeing
▁genul
▁catastrophe
▁Tweet
TZ
▁credible
▁cobor
▁realizeaz
journal
▁shaking
3-6
▁beneficiaz
▁Frankreich
committing
AMS
▁Feli
▁Producer
▁übrig
gemeinde
should
▁neurons
▁Agenda
▁hashtag
▁confortabil
520
bonded
▁următoare
▁volatile
infamous
seară
▁Sorge
▁Beiträge
▁îndeplin
gespräch
▁joueur
▁outsourcing
▁Guvernul
6-2
▁prioritize
▁duminică
▁resignation
▁Converter
hereby
▁stresses
▁brun
▁elev
▁Skip
540
TURE
▁Lynch
▁preveni
compatible
surveyed
▁Ausnahme
▁medicul
▁subtil
▁Quali
▁techno
presently
▁Müller
DIRECT
schuld
▁Bloomberg
feuer
▁Pharmacy
▁Schnitt
186
peaks
▁Gemeinsam
▁récemment
▁Pascal
filmed
RCA
▁virtuelle
▁dotat
logisch
▁Luck
cosy
▁Awareness
▁gesetzlich
padded
▁Lotus
urging
▁mushroom
▁adultes
▁Coca
▁recev
▁mantra
▁practise
▁acceler
bolster
▁compressed
TIN
▁aromatic
geleitet
▁fibr
exécut
▁unconscious
HAR
▁Gregory
▁Manila
ozitate
exemplary
éventuel
▁Craciun
▁tehnologii
▁Despre
▁1917
▁upfront
▁Iulia
▁erwähnt
▁magnesium
▁descriptive
▁consumul
▁10-15
▁erfüllen
gig
430
▁Migration
bră
▁réforme
▁york
dritten
cumva
▁Alumni
▁Ceramic
▁rappelle
▁pianist
twisted
earned
▁Hose
156
▁Salmon
Level
▁swirl
erfahrung
▁liabilities
praxis
IPO
▁screaming
emphasized
DEA
▁dermatolog
▁pacate
▁ansamblu
▁beteiligt
▁Needles
▁organisiert
Pacific
actual
prindere
▁Indoor
▁Gewalt
▁rezid
censor
▁unlawful
▁Explain
▁Flame
▁brachte
▁Mustang
ectomy
▁deliberate
▁sparkle
▁inchis
▁Cristian
▁facture
▁Grundstück
außerhalb
coast
anilor
255
nterdisciplinary
▁Isabel
▁Städte
▁cicl
▁Zeug
▁Muskel
▁indirectly
▁Vorbereitung
MMA
▁pudding
rax
▁Stimmung
▁hierarchy
partie
▁elevate
▁Persian
forensic
Become
leicht
▁staging
▁fühlt
fenster
▁unbelievable
„
▁Guatemala
LET
▁buff
▁Primul
▁mainland
campus
▁gefällt
BAN
finish
accustomed
▁Businesses
▁întreb
▁recomandă
▁pellet
▁GST
SEA
▁categorie
▁convainc
▁considéré
rois
▁thrust
ijk
gefüllt
▁situatii
▁Jacksonville
▁bakery
▁Accident
▁urmeaza
▁crib
getroffen
Based
Including
▁Morocco
▁casserole
▁enquiry
▁pahar
▁Unternehmer
électro
Marie
▁Sno
▁prostate
▁Wallace
empre
▁Multumesc
White
brief
▁kitten
füh
▁mankind
ENE
▁Ethics
▁Realty
▁Emerg
7-8
museum
BRE
▁kilometri
oyaume
▁Cambodia
▁bruit
▁sépar
mastered
shake
▁liaison
▁Boulder
▁tortilla
▁Fokus
▁Blair
▁disturbance
geladen
▁sunscreen
▁reuș
▁Braun
▁existente
stift
▁preot
▁doved
sexual
meanwhile
▁legislature
▁vermeiden
▁inequality
▁turc
ви
▁Kontrolle
▁Ursache
▁confess
▁poetic
attention
textured
GES
6-4
Ray
chromat
▁insightful
▁Navigation
▁destiny
▁ergeben
▁versteh
301
▁Exterior
église
▁Failure
▁Patricia
▁geschützt
intrarea
▁Forward
▁Portrait
▁enregistré
▁wagon
stealing
▁Numero
▁tradui
▁klassische
▁profitieren
▁laboratories
▁reconnaissance
ку
▁Petersburg
▁fertility
▁Understand
dehors
▁Knox
software
▁Celebration
4.6
quino
▁endeavour
▁temptation
▁Registry
IMP
bedingt
▁$60
▁Kriterien
▁strawberries
▁conspiracy
▁pouch
▁Alexandria
▁Mick
extra
▁Operator
enduring
▁smash
Euro
▁Nouvelle
▁Raspberry
▁präsentieren
▁electrician
▁cheerful
▁chargé
▁Diskussion
▁surpass
▁Acces
tausend
▁vigorous
▁tava
CHO
▁1951
▁Umsatz
▁slavery
travel
▁correspondent
▁$150
▁stärker
Alb
▁Lopez
▁longueur
▁successive
▁(2015)
teig
custom
TIM
▁Escape
▁Sekunden
tiré
▁chantier
▁saturated
▁confrontation
▁biography
zuerst
▁rencontré
▁harmless
Branche
▁QR
▁Ereignis
▁verkaufen
0:00
Association
▁Santiago
Control
▁Angriff
lase
▁sfaturi
▁Comprehensive
▁Shepherd
▁exponential
▁penetration
▁comble
ionar
slept
▁Spice
mAh
▁Vertreter
fehler
▁Scroll
▁WARRANT
▁minimise
▁Dept
▁urinar
établir
verhältnis
▁glowing
kulturelle
▁Pediatric
▁inconvenience
Antoine
▁Heck
▁couches
▁1938
maybe
ETA
▁solaire
▁Zürich
computer
milk
он
modalitate
spanning
▁Crypto
▁Spotify
mycin
▁similarities
▁eclipse
Map
double
corporate
▁Hindi
battling
▁habituel
▁Transition
▁luptă
▁trainee
LIS
▁Vatican
Archived
Connect
▁prealabil
▁Chambre
stuhl
▁arrivé
▁Urteil
▁scrutiny
▁memoir
▁innovant
▁sublime
children
▁Handwerk
▁campuses
▁durabil
▁immersive
▁Magnet
läufe
▁Techno
MAP
7.2
▁Schwimm
BOOK
188
▁Supervisor
prévue
needed
▁creditors
▁brin
▁Neck
▁Salut
▁despair
▁Sauce
▁Westminster
▁langfristig
▁northeast
▁încercat
▁nausea
▁Paypal
▁Arrow
▁Travis
(2009)
▁Rising
termes
Australie
▁scarf
klassischen
▁boug
DOT
▁Trink
▁bestätigt
▁officiel
Produkt
DNA
▁*******
GAR
therapeut
187
▁Louisville
▁geöffnet
Watch
85%
▁Candida
▁Kathy
▁Animation
planung
woche
Video
▁Automation
▁foliage
▁evenimentului
SEN
▁Dialog
▁ZIP
▁vieții
▁passionné
▁WOW
ectiv
▁vorbesc
▁computational
▁idiot
▁stigma
▁multumesc
▁sărbători
▁Advantage
▁alegeri
▁philosopher
RIE
refundable
▁Sofia
▁încheiat
meilleures
critical
▁cavity
▁ressort
strong
▁Backup
▁Zeitraum
▁Szene
▁Candle
▁ciocolat
etched
ан
▁Anchor
equate
▁bulg
▁motorist
träglich
please
different
▁Accel
Proiectul
▁cabbage
▁télécharger
▁Presentation
▁Struktur
bücher
▁flatter
emprunt
▁oriental
▁Turnier
brücke
▁légumes
gerechnet
flooded
LER
üben
internaute
▁Austausch
gefordert
▁adoptat
▁erinnern
▁dolphin
▁Parkinson
büro
▁Crest
▁Ikea
▁ecologic
mplă
▁șef
coop
▁Carson
▁uşor
▁exert
▁countertop
ntended
▁Civic
▁attentes
gesetzlichen
frischen
▁Bottle
▁cautare
▁waterfront
▁centerpiece
▁Castel
510
capped
▁mattresses
▁readiness
diag
▁geändert
▁complained
▁diary
▁ceremonies
▁următor
▁Engel
▁disconnect
▁Silvi
▁eingerichtet
medizin
▁majestic
▁Random
▁Equity
▁Echipa
са
316
▁Formation
inland
appuy
TAN
slipped
Certains
▁Silber
▁reçoi
▁Monthly
calculating
▁scratches
▁concurrence
▁Stärke
▁intermediar
▁erlebt
gesellschaftlich
▁Volk
▁Ansprüche
▁cumulative
▁Randy
▁instituții
together
▁Sap
▁modificari
▁erosion
▁wicked
soaked
▁cellar
ignoring
▁scarce
ueuse
▁bibliothèque
critères
▁overlay
IPA
director
▁Krishna
▁methodologies
iocese
▁saucepan
184
275
▁précieu
▁academy
460
ERN
▁emoti
▁télévision
EDIT
▁Valeri
▁Charity
Voilà
▁lipsit
▁unleash
▁suferit
▁Lifestyle
▁Edel
▁Derek
▁Manga
▁increment
▁plötzlich
▁5:30
▁Republicii
▁capitalism
ROW
▁Paar
allée
▁motto
Schäden
▁£10
RIP
courir
rocky
▁Sunshine
▁chimney
▁préfér
▁relaxare
▁colabora
liefer
▁ordentlich
▁dauerhaft
kammer
▁Basket
Site
▁Regina
▁simulate
▁wrestle
wertig
▁Christie
download
▁torch
riya
▁Grie
bitten
▁spezialisiert
▁Parade
▁migraine
▁Armstrong
▁cutie
▁bullying
▁Estonia
▁harvested
▁Hunger
▁frapp
REM
sensor
▁GREAT
▁thyroid
▁mărturi
ocupă
▁Wealth
▁convins
141
▁vingt
▁revel
▁Adri
▁remix
▁fermentation
▁achiziti
dream
▁contemporan
▁youngsters
▁Hartford
▁Wagen
▁Celebr
leveraging
▁Iasi
tackling
▁intrinsic
▁Macedon
NIA
▁bliss
▁gradual
▁inregistrat
▁volleyball
▁offiziell
▁carré
Mostly
▁Harley
▁locati
▁Klo
▁Equal
▁citat
▁argint
prüft
▁Fence
positive
▁Kaz
▁distortion
▁sâmbătă
▁frontière
▁revanch
▁Held
▁Hobb
▁reuşit
deem
▁dorint
▁Anlagen
▁cheval
630
▁implementare
▁curator
▁legislator
▁potassium
▁veterinarian
▁domenii
▁revue
Vielen
africain
before
▁Bestandteil
▁(2010)
▁Arlington
▁Gründung
▁Sprinkle
▁Princeton
chirurg
▁laissé
whoever
▁pasture
ajute
▁joyful
etapa
ESP
▁Iohannis
▁10:30
▁Kingston
▁contender
▁Damage
▁schreibt
sstisch
Associated
▁disposable
veranstaltung
▁puppet
pong
▁Chronicle
222
intuit
inscrire
▁speeches
▁Eingang
▁Adidas
▁cemetery
▁juicy
▁wertvolle
▁militari
China
ecția
luster
auftrag
▁Marius
▁crossover
▁enthusiast
▁cantitate
▁animat
Park
▁unchanged
russia
instant
ţiunea
▁franchi
▁mobiliz
athlet
▁Cardio
▁supus
▁Griff
flakes
soluble
Known
leaking
▁Holocaust
gift
▁tradiţi
▁southeast
▁correspondant
Isaiah
▁diagonal
▁Probabil
▁dégust
▁Naval
▁cultivation
▁Vertrieb
▁pony
▁Throw
little
▁remarque
▁parcare
3.8
▁renunt
▁Rewards
▁Thur
▁underestimate
▁frankly
Bretagne
axial
▁identities
▁Harvest
▁skippe
▁Boutique
▁intuition
▁Rotary
▁SERVICE
▁refill
▁arcade
▁komme
▁irrelevant
▁Sortiment
▁scriitor
▁clicked
▁ciel
▁Caesar
hound
whipped
licate
▁formatting
▁mosaic
(2017)
777
▁Messenger
dulci
▁(2016)
▁popcorn
▁Presidential
▁brokerage
dachte
verkauf
▁pomme
▁fret
▁revere
▁Canvas
▁Nottingham
▁Refuge
▁injustice
▁External
dincolo
directing
▁Toulouse
▁cheltuieli
▁distrus
impôt
landschaft
passion
▁Hobby
significant
▁Guinea
pecializing
pozitie
bourne
▁mâini
▁CFR
▁Konflikt
▁Vodafone
OUG
▁Übersicht
negotiated
▁gliss
▁Kapital
QC
▁gentleman
Inde
▁immensely
Business
▁04/2
societatea
fluoxetine
▁Wachstum
▁récit
▁Preisvergleich
▁Mohammed
gefangen
▁calibration
bekam
▁FUN
wasting
▁prosper
▁Afghan
▁Heroes
▁VMware
exception
▁înlocui
Neu
initiation
▁Peel
▁cunoaste
▁menschliche
▁poarta
▁congestion
▁îmbunătăț
EUR
▁sushi
Jährige
espoir
inspected
▁etape
▁pharmacist
flect
Changing
▁radiant
Daddy
▁categorii
quête
▁skincare
hébergement
840
awaiting
▁murdered
▁proficient
▁chauffe
▁contur
▁rejoindre
▁foloseste
▁Grup
152
▁workspace
▁primitive
▁Ginger
▁chemotherapy
▁platinum
▁sarcina
▁revival
▁Meditation
▁Vogel
IMA
▁handset
▁Nachmittag
▁déchets
▁Cornwall
▁Curry
▁cuplu
▁Birth
forward
Dezvoltare
▁irgendwie
▁erzielt
LOS
▁overload
▁repay
urlaub
7.0
▁Wheat
▁degrab
▁Brock
▁inhabit
▁Speech
directional
▁Mandel
▁erscheinen
consciously
▁sunet
▁stole
▁Utilis
▁obstruction
▁mindfulness
partnering
CSI
204
▁squirrel
▁Rwanda
▁hunters
▁revitaliz
▁avansat
▁Yamaha
foto
▁Vegan
▁pitched
▁Vortrag
traditional
offrent
▁Expression
▁apprécié
▁Christina
eilig
▁verhindern
culturii
Aşa
▁enamel
▁fördern
▁acheté
▁eventuell
▁Sino
▁totodat
accelerated
▁strengthened
corro
4,5
▁Beverly
ulevard
▁hamper
▁Tempe
▁Yacht
▁LGBT
▁fingertips
▁Auftraggeber
▁harbour
blew
▁ideology
▁covenant
▁faction
▁animé
energie
iterführende
▁MAI
▁pluie
▁cathedral
▁chiropractic
monies
▁contraction
pvc
staff
BIT
EET
▁sanction
▁Reiki
Trying
▁endangered
▁Emperor
▁empfi
animation
207
separating
▁lucrative
▁ortho
variété
hésit
nuances
▁$250
▁drumuri
▁unsafe
▁1943
▁automatique
billed
▁rectangle
▁Spannung
▁dévoil
▁perimeter
▁imaginative
actifs
neuve
leagă
gehende
▁Gorgeous
▁impeccable
▁Curtain
▁presume
surpassed
schiff
Allied
fanden
▁célébr
▁phénomène
▁Powell
jean
▁peculiar
▁Antarctic
▁gradient
▁brainstorm
échapp
Bot
cita
▁lumber
weichen
▁Halte
▁noștri
construction
DOC
▁aluat
streamlined
Bio
▁nutritious
▁délicat
▁sticla
OVE
▁panneau
[...]
